#include "magic_wand_model_data.h"


// We need to keep the data array aligned on some architectures.

#ifdef __has_attribute

#define HAVE_ATTRIBUTE(x) __has_attribute(x)

#else

#define HAVE_ATTRIBUTE(x) 0

#endif

#if HAVE_ATTRIBUTE(aligned) || (defined(__GNUC__) && !defined(__clang__))

#define DATA_ALIGN_ATTRIBUTE __attribute__((aligned(4)))

#else

#define DATA_ALIGN_ATTRIBUTE

#endif


const unsigned char g_magic_wand_model_data[] DATA_ALIGN_ATTRIBUTE = {
 0x08, 0x00, 0x00, 0x00, 0x54, 0x46, 0x4c, 0x33, 0x62, 0xff, 0xff, 0xff,
  0x03, 0x00, 0x00, 0x00, 0x10, 0x00, 0x00, 0x00, 0x24, 0x00, 0x00, 0x00,
  0x78, 0x00, 0x00, 0x00, 0x24, 0x00, 0x00, 0x00, 0x05, 0x00, 0x00, 0x00,
  0x78, 0x05, 0x00, 0x00, 0xb0, 0x04, 0x00, 0x00, 0xe0, 0x02, 0x00, 0x00,
  0x60, 0x02, 0x00, 0x00, 0x54, 0x01, 0x00, 0x00, 0x01, 0x00, 0x00, 0x00,
  0x78, 0x00, 0x00, 0x00, 0x13, 0x00, 0x00, 0x00, 0x18, 0x30, 0x00, 0x00,
  0x14, 0x30, 0x00, 0x00, 0x20, 0x2f, 0x00, 0x00, 0xa8, 0x2e, 0x00, 0x00,
  0x3c, 0x2e, 0x00, 0x00, 0xec, 0x11, 0x00, 0x00, 0x98, 0x10, 0x00, 0x00,
  0xbc, 0x0e, 0x00, 0x00, 0x60, 0x06, 0x00, 0x00, 0xfc, 0x05, 0x00, 0x00,
  0x78, 0x05, 0x00, 0x00, 0xec, 0x2f, 0x00, 0x00, 0xe8, 0x2f, 0x00, 0x00,
  0xe4, 0x2f, 0x00, 0x00, 0xe0, 0x2f, 0x00, 0x00, 0xdc, 0x2f, 0x00, 0x00,
  0xd8, 0x2f, 0x00, 0x00, 0xd4, 0x2f, 0x00, 0x00, 0xd0, 0x2f, 0x00, 0x00,
  0x0f, 0x00, 0x00, 0x00, 0x4d, 0x4c, 0x49, 0x52, 0x20, 0x43, 0x6f, 0x6e,
  0x76, 0x65, 0x72, 0x74, 0x65, 0x64, 0x2e, 0x00, 0x00, 0x00, 0x0e, 0x00,
  0x18, 0x00, 0x04, 0x00, 0x08, 0x00, 0x0c, 0x00, 0x10, 0x00, 0x14, 0x00,
  0x0e, 0x00, 0x00, 0x00, 0x14, 0x00, 0x00, 0x00, 0x5c, 0x00, 0x00, 0x00,
  0x60, 0x00, 0x00, 0x00, 0x64, 0x00, 0x00, 0x00, 0x84, 0x00, 0x00, 0x00,
  0x12, 0x00, 0x00, 0x00, 0x48, 0x2f, 0x00, 0x00, 0xe4, 0x2e, 0x00, 0x00,
  0x3c, 0x2e, 0x00, 0x00, 0xd8, 0x2d, 0x00, 0x00, 0x70, 0x2d, 0x00, 0x00,
  0x1c, 0x11, 0x00, 0x00, 0xc0, 0x0f, 0x00, 0x00, 0xe4, 0x0d, 0x00, 0x00,
  0xa0, 0x05, 0x00, 0x00, 0x3c, 0x05, 0x00, 0x00, 0xb0, 0x04, 0x00, 0x00,
  0xe8, 0x03, 0x00, 0x00, 0x38, 0x03, 0x00, 0x00, 0xa4, 0x02, 0x00, 0x00,
  0x10, 0x02, 0x00, 0x00, 0x90, 0x01, 0x00, 0x00, 0xfc, 0x00, 0x00, 0x00,
  0x80, 0x00, 0x00, 0x00, 0x01, 0x00, 0x00, 0x00, 0x00, 0x00, 0x00, 0x00,
  0x01, 0x00, 0x00, 0x00, 0x11, 0x00, 0x00, 0x00, 0x08, 0x00, 0x00, 0x00,
  0x1c, 0x04, 0x00, 0x00, 0x58, 0x03, 0x00, 0x00, 0xc8, 0x02, 0x00, 0x00,
  0x24, 0x02, 0x00, 0x00, 0xac, 0x01, 0x00, 0x00, 0x10, 0x01, 0x00, 0x00,
  0x94, 0x00, 0x00, 0x00, 0x10, 0x00, 0x00, 0x00, 0x04, 0x00, 0x00, 0x00,
  0x6d, 0x61, 0x69, 0x6e, 0x00, 0x00, 0x00, 0x00, 0x8e, 0xff, 0xff, 0xff,
  0x00, 0x00, 0x00, 0x09, 0x04, 0x00, 0x00, 0x00, 0x1c, 0x00, 0x00, 0x00,
  0x10, 0x00, 0x00, 0x00, 0x04, 0x00, 0x00, 0x00, 0x0a, 0xd2, 0xff, 0xff,
  0x00, 0x00, 0x80, 0x3f, 0x01, 0x00, 0x00, 0x00, 0x11, 0x00, 0x00, 0x00,
  0x01, 0x00, 0x00, 0x00, 0x10, 0x00, 0x00, 0x00, 0xf6, 0xfb, 0xff, 0xff,
  0x00, 0x00, 0x00, 0x19, 0x01, 0x00, 0x00, 0x00, 0x8a, 0xd1, 0xff, 0xff,
  0x10, 0x00, 0x00, 0x00, 0x12, 0x00, 0x00, 0x00, 0x14, 0x00, 0x00, 0x00,
  0x20, 0x00, 0x00, 0x00, 0x02, 0x00, 0x00, 0x00, 0x01, 0x00, 0x00, 0x00,
  0x04, 0x00, 0x00, 0x00, 0x08, 0x00, 0x00, 0x00, 0x49, 0x64, 0x65, 0x6e,
  0x74, 0x69, 0x74, 0x79, 0x00, 0x00, 0x00, 0x00, 0xc4, 0xd1, 0xff, 0xff,
  0x00, 0x00, 0x0e, 0x00, 0x18, 0x00, 0x08, 0x00, 0x0c, 0x00, 0x10, 0x00,
  0x07, 0x00, 0x14, 0x00, 0x0e, 0x00, 0x00, 0x00, 0x00, 0x00, 0x00, 0x08,
  0x03, 0x00, 0x00, 0x00, 0x18, 0x00, 0x00, 0x00, 0x0c, 0x00, 0x00, 0x00,
  0x04, 0x00, 0x00, 0x00, 0x98, 0xd1, 0xff, 0xff, 0x01, 0x00, 0x00, 0x00,
  0x10, 0x00, 0x00, 0x00, 0x03, 0x00, 0x00, 0x00, 0x0f, 0x00, 0x00, 0x00,
  0x05, 0x00, 0x00, 0x00, 0x02, 0x00, 0x00, 0x00, 0x02, 0xd2, 0xff, 0xff,
  0x10, 0x00, 0x00, 0x00, 0x11, 0x00, 0x00, 0x00, 0x14, 0x00, 0x00, 0x00,
  0x30, 0x00, 0x00, 0x00, 0x02, 0x00, 0x00, 0x00, 0x01, 0x00, 0x00, 0x00,
  0x04, 0x00, 0x00, 0x00, 0x1a, 0x00, 0x00, 0x00, 0x73, 0x65, 0x71, 0x75,
  0x65, 0x6e, 0x74, 0x69, 0x61, 0x6c, 0x2f, 0x64, 0x65, 0x6e, 0x73, 0x65,
  0x5f, 0x31, 0x2f, 0x42, 0x69, 0x61, 0x73, 0x41, 0x64, 0x64, 0x00, 0x00,
  0xf4, 0xd1, 0xff, 0xff, 0xd6, 0xfd, 0xff, 0xff, 0x00, 0x00, 0x00, 0x08,
  0x03, 0x00, 0x00, 0x00, 0x24, 0x00, 0x00, 0x00, 0x18, 0x00, 0x00, 0x00,
  0x0c, 0x00, 0x00, 0x00, 0x00, 0x00, 0x06, 0x00, 0x08, 0x00, 0x07, 0x00,
  0x06, 0x00, 0x00, 0x00, 0x00, 0x00, 0x00, 0x01, 0x01, 0x00, 0x00, 0x00,
  0x0f, 0x00, 0x00, 0x00, 0x03, 0x00, 0x00, 0x00, 0x0e, 0x00, 0x00, 0x00,
  0x04, 0x00, 0x00, 0x00, 0x01, 0x00, 0x00, 0x00, 0xfe, 0xfc, 0xff, 0xff,
  0x00, 0x00, 0x00, 0x09, 0x01, 0x00, 0x00, 0x00, 0x92, 0xd2, 0xff, 0xff,
  0x10, 0x00, 0x00, 0x00, 0x10, 0x00, 0x00, 0x00, 0x14, 0x00, 0x00, 0x00,
  0x2c, 0x00, 0x00, 0x00, 0x02, 0x00, 0x00, 0x00, 0x01, 0x00, 0x00, 0x00,
  0x10, 0x00, 0x00, 0x00, 0x15, 0x00, 0x00, 0x00, 0x73, 0x65, 0x71, 0x75,
  0x65, 0x6e, 0x74, 0x69, 0x61, 0x6c, 0x2f, 0x64, 0x65, 0x6e, 0x73, 0x65,
  0x2f, 0x52, 0x65, 0x6c, 0x75, 0x00, 0x00, 0x00, 0xd8, 0xd2, 0xff, 0xff,
  0x00, 0x00, 0x0a, 0x00, 0x10, 0x00, 0x04, 0x00, 0x08, 0x00, 0x0c, 0x00,
  0x0a, 0x00, 0x00, 0x00, 0x02, 0x00, 0x00, 0x00, 0x10, 0x00, 0x00, 0x00,
  0x04, 0x00, 0x00, 0x00, 0x01, 0x00, 0x00, 0x00, 0x0e, 0x00, 0x00, 0x00,
  0x02, 0x00, 0x00, 0x00, 0x0d, 0x00, 0x00, 0x00, 0x03, 0x00, 0x00, 0x00,
  0x7a, 0xfd, 0xff, 0xff, 0x00, 0x00, 0x00, 0x16, 0x01, 0x00, 0x00, 0x00,
  0x0e, 0xd3, 0xff, 0xff, 0x10, 0x00, 0x00, 0x00, 0x0f, 0x00, 0x00, 0x00,
  0x14, 0x00, 0x00, 0x00, 0x30, 0x00, 0x00, 0x00, 0x02, 0x00, 0x00, 0x00,
  0x01, 0x00, 0x00, 0x00, 0x70, 0x00, 0x00, 0x00, 0x1a, 0x00, 0x00, 0x00,
  0x73, 0x65, 0x71, 0x75, 0x65, 0x6e, 0x74, 0x69, 0x61, 0x6c, 0x2f, 0x66,
  0x6c, 0x61, 0x74, 0x74, 0x65, 0x6e, 0x2f, 0x52, 0x65, 0x73, 0x68, 0x61,
  0x70, 0x65, 0x00, 0x00, 0x00, 0xd3, 0xff, 0xff, 0xe2, 0xfe, 0xff, 0xff,
  0x00, 0x00, 0x00, 0x05, 0x01, 0x00, 0x00, 0x00, 0x38, 0x00, 0x00, 0x00,
  0x2c, 0x00, 0x00, 0x00, 0x14, 0x00, 0x00, 0x00, 0x00, 0x00, 0x0e, 0x00,
  0x14, 0x00, 0x00, 0x00, 0x10, 0x00, 0x0c, 0x00, 0x08, 0x00, 0x04, 0x00,
  0x0e, 0x00, 0x00, 0x00, 0x03, 0x00, 0x00, 0x00, 0x01, 0x00, 0x00, 0x00,
  0x03, 0x00, 0x00, 0x00, 0x01, 0x00, 0x00, 0x00, 0x01, 0x00, 0x00, 0x00,
  0x0d, 0x00, 0x00, 0x00, 0x01, 0x00, 0x00, 0x00, 0x0c, 0x00, 0x00, 0x00,
  0x9e, 0xd3, 0xff, 0xff, 0x10, 0x00, 0x00, 0x00, 0x0e, 0x00, 0x00, 0x00,
  0x1c, 0x00, 0x00, 0x00, 0x40, 0x00, 0x00, 0x00, 0x04, 0x00, 0x00, 0x00,
  0x01, 0x00, 0x00, 0x00, 0x07, 0x00, 0x00, 0x00, 0x01, 0x00, 0x00, 0x00,
  0x10, 0x00, 0x00, 0x00, 0x22, 0x00, 0x00, 0x00, 0x73, 0x65, 0x71, 0x75,
  0x65, 0x6e, 0x74, 0x69, 0x61, 0x6c, 0x2f, 0x6d, 0x61, 0x78, 0x5f, 0x70,
  0x6f, 0x6f, 0x6c, 0x69, 0x6e, 0x67, 0x32, 0x64, 0x5f, 0x31, 0x2f, 0x4d,
  0x61, 0x78, 0x50, 0x6f, 0x6f, 0x6c, 0x00, 0x00, 0xa0, 0xd3, 0xff, 0xff,
  0xc2, 0xfe, 0xff, 0xff, 0x00, 0x00, 0x00, 0x01, 0x24, 0x00, 0x00, 0x00,
  0x18, 0x00, 0x00, 0x00, 0x04, 0x00, 0x00, 0x00, 0xb4, 0xfe, 0xff, 0xff,
  0x01, 0x00, 0x00, 0x00, 0x01, 0x00, 0x00, 0x00, 0x00, 0x00, 0x00, 0x01,
  0x01, 0x00, 0x00, 0x00, 0x0c, 0x00, 0x00, 0x00, 0x03, 0x00, 0x00, 0x00,
  0x0b, 0x00, 0x00, 0x00, 0x07, 0x00, 0x00, 0x00, 0x09, 0x00, 0x00, 0x00,
  0x2e, 0xd4, 0xff, 0xff, 0x10, 0x00, 0x00, 0x00, 0x0d, 0x00, 0x00, 0x00,
  0x1c, 0x00, 0x00, 0x00, 0x2c, 0x00, 0x00, 0x00, 0x04, 0x00, 0x00, 0x00,
  0x01, 0x00, 0x00, 0x00, 0x15, 0x00, 0x00, 0x00, 0x01, 0x00, 0x00, 0x00,
  0x10, 0x00, 0x00, 0x00, 0x0c, 0x00, 0x00, 0x00, 0x74, 0x66, 0x6c, 0x2e,
  0x63, 0x6f, 0x6e, 0x76, 0x5f, 0x32, 0x64, 0x31, 0x00, 0x00, 0x00, 0x00,
  0x74, 0xd4, 0xff, 0xff, 0x00, 0x00, 0x0e, 0x00, 0x1a, 0x00, 0x08, 0x00,
  0x0c, 0x00, 0x10, 0x00, 0x07, 0x00, 0x14, 0x00, 0x0e, 0x00, 0x00, 0x00,
  0x00, 0x00, 0x00, 0x05, 0x01, 0x00, 0x00, 0x00, 0x3c, 0x00, 0x00, 0x00,
  0x30, 0x00, 0x00, 0x00, 0x14, 0x00, 0x00, 0x00, 0x00, 0x00, 0x0e, 0x00,
  0x18, 0x00, 0x17, 0x00, 0x10, 0x00, 0x0c, 0x00, 0x08, 0x00, 0x04, 0x00,
  0x0e, 0x00, 0x00, 0x00, 0x03, 0x00, 0x00, 0x00, 0x03, 0x00, 0x00, 0x00,
  0x03, 0x00, 0x00, 0x00, 0x03, 0x00, 0x00, 0x00, 0x00, 0x00, 0x00, 0x01,
  0x01, 0x00, 0x00, 0x00, 0x0b, 0x00, 0x00, 0x00, 0x01, 0x00, 0x00, 0x00,
  0x0a, 0x00, 0x00, 0x00, 0x46, 0xff, 0xff, 0xff, 0x00, 0x00, 0x00, 0x11,
  0x01, 0x00, 0x00, 0x00, 0xda, 0xd4, 0xff, 0xff, 0x10, 0x00, 0x00, 0x00,
  0x0c, 0x00, 0x00, 0x00, 0x1c, 0x00, 0x00, 0x00, 0x40, 0x00, 0x00, 0x00,
  0x04, 0x00, 0x00, 0x00, 0x01, 0x00, 0x00, 0x00, 0x15, 0x00, 0x00, 0x00,
  0x01, 0x00, 0x00, 0x00, 0x08, 0x00, 0x00, 0x00, 0x20, 0x00, 0x00, 0x00,
  0x73, 0x65, 0x71, 0x75, 0x65, 0x6e, 0x74, 0x69, 0x61, 0x6c, 0x2f, 0x6d,
  0x61, 0x78, 0x5f, 0x70, 0x6f, 0x6f, 0x6c, 0x69, 0x6e, 0x67, 0x32, 0x64,
  0x2f, 0x4d, 0x61, 0x78, 0x50, 0x6f, 0x6f, 0x6c, 0x00, 0x00, 0x00, 0x00,
  0x34, 0xd5, 0xff, 0xff, 0x00, 0x00, 0x0e, 0x00, 0x14, 0x00, 0x00, 0x00,
  0x08, 0x00, 0x0c, 0x00, 0x07, 0x00, 0x10, 0x00, 0x0e, 0x00, 0x00, 0x00,
  0x00, 0x00, 0x00, 0x01, 0x30, 0x00, 0x00, 0x00, 0x24, 0x00, 0x00, 0x00,
  0x10, 0x00, 0x00, 0x00, 0x0c, 0x00, 0x10, 0x00, 0x00, 0x00, 0x04, 0x00,
  0x08, 0x00, 0x0f, 0x00, 0x0c, 0x00, 0x00, 0x00, 0x01, 0x00, 0x00, 0x00,
  0x01, 0x00, 0x00, 0x00, 0x00, 0x00, 0x00, 0x01, 0x01, 0x00, 0x00, 0x00,
  0x0a, 0x00, 0x00, 0x00, 0x03, 0x00, 0x00, 0x00, 0x00, 0x00, 0x00, 0x00,
  0x06, 0x00, 0x00, 0x00, 0x08, 0x00, 0x00, 0x00, 0x00, 0x00, 0x0a, 0x00,
  0x0c, 0x00, 0x07, 0x00, 0x00, 0x00, 0x08, 0x00, 0x0a, 0x00, 0x00, 0x00,
  0x00, 0x00, 0x00, 0x03, 0x01, 0x00, 0x00, 0x00, 0x9e, 0xd5, 0xff, 0xff,
  0x10, 0x00, 0x00, 0x00, 0x0b, 0x00, 0x00, 0x00, 0x1c, 0x00, 0x00, 0x00,
  0x28, 0x00, 0x00, 0x00, 0x04, 0x00, 0x00, 0x00, 0x01, 0x00, 0x00, 0x00,
  0x40, 0x00, 0x00, 0x00, 0x03, 0x00, 0x00, 0x00, 0x08, 0x00, 0x00, 0x00,
  0x0b, 0x00, 0x00, 0x00, 0x74, 0x66, 0x6c, 0x2e, 0x63, 0x6f, 0x6e, 0x76,
  0x5f, 0x32, 0x64, 0x00, 0x88, 0xd5, 0xff, 0xff, 0x7e, 0xd6, 0xff, 0xff,
  0x04, 0x00, 0x00, 0x00, 0x40, 0x00, 0x00, 0x00, 0xab, 0x87, 0x75, 0xbf,
  0xe9, 0xcf, 0xf9, 0x3e, 0xd5, 0x9c, 0x77, 0xbe, 0xec, 0xa0, 0x00, 0xc0,
  0x83, 0xc7, 0x07, 0xc0, 0x16, 0x83, 0x5f, 0x40, 0x51, 0x74, 0x42, 0xbe,
  0x57, 0xf1, 0x78, 0x3e, 0x70, 0x18, 0xcf, 0xbf, 0xc5, 0xc9, 0xc0, 0x3e,
  0x74, 0xfc, 0x00, 0xc0, 0xea, 0x22, 0xd8, 0xbd, 0x67, 0x9a, 0x91, 0x3f,
  0x67, 0x01, 0x4c, 0xbf, 0xb8, 0xca, 0xa3, 0xbf, 0x4d, 0x15, 0xe0, 0x3e,
  0x26, 0xd6, 0xff, 0xff, 0x10, 0x00, 0x00, 0x00, 0x0a, 0x00, 0x00, 0x00,
  0x10, 0x00, 0x00, 0x00, 0x20, 0x00, 0x00, 0x00, 0x01, 0x00, 0x00, 0x00,
  0x10, 0x00, 0x00, 0x00, 0x0d, 0x00, 0x00, 0x00, 0x73, 0x74, 0x64, 0x2e,
  0x63, 0x6f, 0x6e, 0x73, 0x74, 0x61, 0x6e, 0x74, 0x31, 0x00, 0x00, 0x00,
  0x08, 0xd6, 0xff, 0xff, 0xfe, 0xd6, 0xff, 0xff, 0x04, 0x00, 0x00, 0x00,
  0x20, 0x00, 0x00, 0x00, 0x64, 0xaf, 0x59, 0x3f, 0x54, 0xd9, 0x78, 0xbe,
  0xa3, 0x2c, 0x5a, 0xbf, 0x5e, 0x44, 0x9e, 0xbf, 0x12, 0x16, 0x40, 0xc0,
  0x5f, 0xd0, 0x8a, 0xbf, 0xb2, 0xa9, 0x28, 0xc0, 0x71, 0x22, 0x7c, 0xbf,
  0x86, 0xd6, 0xff, 0xff, 0x10, 0x00, 0x00, 0x00, 0x09, 0x00, 0x00, 0x00,
  0x10, 0x00, 0x00, 0x00, 0x20, 0x00, 0x00, 0x00, 0x01, 0x00, 0x00, 0x00,
  0x08, 0x00, 0x00, 0x00, 0x0c, 0x00, 0x00, 0x00, 0x73, 0x74, 0x64, 0x2e,
  0x63, 0x6f, 0x6e, 0x73, 0x74, 0x61, 0x6e, 0x74, 0x00, 0x00, 0x00, 0x00,
  0x68, 0xd6, 0xff, 0xff, 0x5e, 0xd7, 0xff, 0xff, 0x04, 0x00, 0x00, 0x00,
  0x00, 0x08, 0x00, 0x00, 0x0d, 0x42, 0x44, 0xbe, 0x90, 0xae, 0x41, 0x3d,
  0xa3, 0x6e, 0xb6, 0xbe, 0x62, 0xba, 0xf0, 0x3e, 0xf1, 0x6f, 0x85, 0x3c,
  0xd1, 0xae, 0x24, 0xbe, 0x29, 0x32, 0x26, 0x3e, 0x10, 0x3b, 0x76, 0xbe,
  0x1c, 0xcc, 0xd6, 0xbd, 0xaa, 0x42, 0xf9, 0xbe, 0x8c, 0x76, 0xb7, 0xbe,
  0x87, 0x35, 0xbd, 0xbe, 0x27, 0xd2, 0x69, 0x3e, 0x82, 0x1e, 0xb3, 0xbd,
  0x63, 0x26, 0x9c, 0xbd, 0x2f, 0x5d, 0xc0, 0x3d, 0xe7, 0x19, 0x08, 0xbe,
  0x55, 0xf3, 0x36, 0x3e, 0xfd, 0x62, 0x1f, 0xbe, 0x41, 0x98, 0x2d, 0xbf,
  0x34, 0xa5, 0xa2, 0x3e, 0xaf, 0x39, 0x0e, 0x3e, 0x56, 0xe8, 0x6b, 0xbd,
  0xa1, 0xb4, 0xa0, 0x3d, 0x4a, 0x5a, 0x0c, 0xbf, 0xf6, 0x01, 0xbd, 0x3e,
  0xbc, 0xec, 0x6b, 0x3e, 0x98, 0x75, 0xfb, 0xbe, 0x91, 0xc7, 0x96, 0xbd,
  0x89, 0x07, 0x9e, 0xbd, 0xcb, 0x32, 0xb0, 0x3d, 0x2c, 0x4b, 0xce, 0xbd,
  0x0b, 0x77, 0x9e, 0xbd, 0xa4, 0xd3, 0x14, 0x3e, 0x36, 0x8b, 0x6c, 0xbd,
  0x08, 0x6d, 0x23, 0x3e, 0xd8, 0xd6, 0xc1, 0xbd, 0x3e, 0x57, 0x79, 0xbb,
  0x46, 0x05, 0x28, 0x3e, 0xc4, 0xad, 0xb7, 0xbe, 0x1e, 0x01, 0x11, 0x3b,
  0x5d, 0xfa, 0xe7, 0x3d, 0x3f, 0xe3, 0x28, 0xbc, 0x89, 0x8f, 0x50, 0x3e,
  0x37, 0x57, 0x61, 0x3d, 0x8a, 0xf9, 0x9f, 0x3c, 0x64, 0xad, 0xb2, 0x3e,
  0x34, 0x2f, 0x55, 0xbd, 0x2d, 0x32, 0xe6, 0xbd, 0x43, 0x17, 0x09, 0xbe,
  0xad, 0x4c, 0x35, 0xbd, 0x47, 0x75, 0xc9, 0xbd, 0xd7, 0x41, 0x77, 0xbe,
  0xbd, 0x82, 0xdd, 0xbd, 0xf9, 0x9b, 0xa8, 0xbe, 0x7f, 0xbf, 0x99, 0xbd,
  0xc6, 0x37, 0x31, 0xbe, 0x1d, 0xbc, 0xbd, 0xbd, 0x4e, 0x68, 0x4a, 0x3e,
  0x5b, 0xce, 0x2c, 0xbe, 0xb0, 0xc3, 0x46, 0xbe, 0xb8, 0x8b, 0x15, 0xbe,
  0x77, 0xdd, 0xa2, 0xbe, 0x36, 0xff, 0xb1, 0x3d, 0x7a, 0x63, 0xd4, 0xbe,
  0x55, 0xd3, 0x21, 0xbe, 0x8b, 0xa1, 0xfc, 0xbc, 0xf4, 0xe5, 0xd6, 0xbd,
  0xc1, 0x34, 0x3c, 0xbf, 0xa6, 0x44, 0x8f, 0xbe, 0xcb, 0x5b, 0xf3, 0xbe,
  0xe1, 0xb6, 0xe8, 0xbe, 0x59, 0x5e, 0x6c, 0xbe, 0x0e, 0x60, 0x37, 0x3e,
  0x7f, 0xd0, 0xcf, 0x3d, 0x8f, 0x0f, 0x42, 0x3c, 0x23, 0x39, 0xd3, 0xbd,
  0x85, 0x6e, 0xf9, 0xbc, 0x13, 0x41, 0x8c, 0x3c, 0x0b, 0x4e, 0x58, 0xbf,
  0x10, 0x45, 0x21, 0x3d, 0x4a, 0xc7, 0x97, 0xbd, 0xfe, 0x97, 0xf2, 0x3c,
  0x05, 0x0e, 0x76, 0xbc, 0x0c, 0xa1, 0x82, 0xbe, 0x61, 0xdb, 0x06, 0xbd,
  0x1c, 0xef, 0x75, 0xbe, 0xb4, 0x22, 0x57, 0x3d, 0xd8, 0xb0, 0x8c, 0x3e,
  0x44, 0xa5, 0x84, 0x3e, 0xeb, 0x4e, 0x0b, 0xbd, 0x0c, 0x43, 0x04, 0x3e,
  0x99, 0x08, 0x42, 0x3d, 0x82, 0xec, 0x76, 0x3d, 0x94, 0xec, 0x14, 0x3e,
  0x9c, 0x66, 0x1e, 0xbd, 0x6c, 0xc0, 0x17, 0xbd, 0xa7, 0xfa, 0x87, 0xbd,
  0x07, 0xfe, 0x68, 0xbd, 0x79, 0x32, 0xf2, 0xbc, 0x9c, 0xc0, 0x09, 0x3d,
  0x20, 0x0c, 0x3d, 0xbd, 0x6a, 0x13, 0x1c, 0xbe, 0x4f, 0x60, 0x5b, 0xbe,
  0x82, 0x6d, 0xfa, 0x3d, 0x0a, 0xa3, 0xa7, 0xbd, 0x7a, 0x15, 0x8d, 0xbd,
  0xb6, 0x9c, 0x85, 0xbd, 0xcf, 0x10, 0x1a, 0x3c, 0xf3, 0x99, 0xaa, 0xbd,
  0x87, 0x25, 0x02, 0xbd, 0x68, 0xb9, 0xbb, 0x3e, 0x9f, 0xab, 0xd3, 0x3c,
  0xb8, 0x73, 0xd6, 0x3d, 0x8b, 0x6e, 0x4a, 0xbc, 0x7f, 0xe0, 0x67, 0x3b,
  0xee, 0x37, 0xed, 0x3e, 0x99, 0xbf, 0x12, 0xbd, 0x51, 0x47, 0x95, 0x3e,
  0x86, 0xfe, 0xb5, 0xbd, 0xeb, 0xdd, 0x09, 0xbd, 0xf7, 0x05, 0x2f, 0xbd,
  0xf3, 0x0d, 0x1c, 0xbc, 0x54, 0xe6, 0xbc, 0xbb, 0x35, 0xb1, 0x8c, 0x3e,
  0xdf, 0x4a, 0x6e, 0xbc, 0x37, 0x1b, 0xb0, 0xbd, 0x6c, 0x83, 0xbf, 0xbd,
  0x55, 0x7a, 0xb3, 0x3d, 0xc0, 0xf0, 0x88, 0xbd, 0xdf, 0x9c, 0x07, 0xbc,
  0x70, 0x0c, 0xbc, 0x3e, 0xa0, 0xb2, 0xc2, 0x3c, 0xe1, 0x53, 0x5d, 0x3d,
  0x8f, 0x92, 0xef, 0x3e, 0x98, 0xda, 0x11, 0xbe, 0x23, 0xee, 0x32, 0xbe,
  0xaa, 0xac, 0xab, 0xbd, 0x4d, 0xa2, 0x0d, 0x3b, 0x81, 0x8e, 0x24, 0xbd,
  0xa1, 0xd4, 0x24, 0x3e, 0x03, 0x50, 0x89, 0x3c, 0xc7, 0xc9, 0x73, 0x3d,
  0xf6, 0x56, 0x02, 0x3d, 0x4a, 0xa1, 0x64, 0xbe, 0xf3, 0x1f, 0xb9, 0xbe,
  0xa5, 0x38, 0xb9, 0xbd, 0x2e, 0x2b, 0x6c, 0xbd, 0x1b, 0xd8, 0x92, 0x3e,
  0x59, 0xf5, 0xb7, 0xbd, 0x55, 0x23, 0xa7, 0xbe, 0x41, 0xb1, 0x07, 0xbc,
  0x55, 0x3d, 0x7f, 0xbd, 0x49, 0x4d, 0xb7, 0xbe, 0xc8, 0x2c, 0x0b, 0xbe,
  0xff, 0x8e, 0x96, 0xbd, 0x1e, 0xf4, 0x95, 0x3c, 0x14, 0xa2, 0xd9, 0xbd,
  0xa9, 0x76, 0xfb, 0xbe, 0x0e, 0xb2, 0x1c, 0xbc, 0x72, 0x3d, 0xa5, 0x3e,
  0x10, 0xe0, 0x84, 0xbe, 0xc7, 0x7b, 0x0b, 0xbd, 0x89, 0x06, 0xb1, 0xbd,
  0x66, 0x53, 0x56, 0xbd, 0x08, 0x5e, 0x85, 0xbe, 0x0e, 0xcc, 0x2b, 0x3e,
  0xe0, 0xe9, 0x60, 0xbd, 0xec, 0xd4, 0x5c, 0xbc, 0xda, 0x75, 0x86, 0xbe,
  0x5d, 0x22, 0x41, 0x3d, 0xff, 0x40, 0x12, 0xbe, 0xbf, 0x09, 0xfb, 0xbe,
  0x7e, 0xb7, 0xa2, 0xbe, 0x4a, 0xb0, 0x08, 0xbe, 0x05, 0x8e, 0xee, 0xbd,
  0xd4, 0xfd, 0xb8, 0x3e, 0xbd, 0x96, 0x79, 0xbe, 0xfc, 0x50, 0xf6, 0x3d,
  0xca, 0x8e, 0x84, 0xbe, 0x23, 0x88, 0xe5, 0xbd, 0xef, 0xa3, 0xdb, 0xbe,
  0x2e, 0xac, 0x4f, 0xbd, 0x00, 0x79, 0xfc, 0x3b, 0x50, 0xa6, 0x96, 0x3e,
  0x63, 0x01, 0x41, 0xbe, 0x07, 0x65, 0x95, 0xbe, 0x70, 0xa7, 0x36, 0xbd,
  0x31, 0x09, 0xa2, 0xbe, 0x8f, 0x77, 0x62, 0xbe, 0x99, 0xa5, 0x0d, 0xbf,
  0x0c, 0x67, 0xf8, 0xbe, 0xfc, 0x7e, 0xf7, 0x3e, 0x47, 0x5e, 0xba, 0x3d,
  0xf9, 0xbf, 0x53, 0xbe, 0xe8, 0x50, 0xcb, 0xbd, 0xe5, 0xbe, 0x00, 0xbd,
  0x70, 0x27, 0x42, 0xbe, 0xa7, 0x41, 0x4c, 0x3e, 0x1c, 0xf8, 0x52, 0xbe,
  0xa7, 0xc4, 0x56, 0xbe, 0x4a, 0xa3, 0x06, 0x3f, 0x16, 0xd6, 0x8c, 0xbe,
  0x6b, 0x8d, 0x7c, 0xbd, 0x72, 0xfa, 0xbe, 0x3d, 0x02, 0x6b, 0x4e, 0xbd,
  0xf9, 0xdd, 0x8e, 0xbd, 0x46, 0x07, 0xdb, 0xbd, 0x5a, 0x87, 0x1a, 0x3e,
  0x2f, 0xcb, 0xd6, 0x3d, 0xa1, 0x7e, 0x88, 0xbe, 0xf3, 0x78, 0x38, 0xbe,
  0x4f, 0x9d, 0x9a, 0x3b, 0x4f, 0x47, 0xb8, 0xbd, 0x4b, 0x36, 0x55, 0x3e,
  0x93, 0x20, 0x07, 0xbe, 0x48, 0xf3, 0xe0, 0x3c, 0xe2, 0x3c, 0x14, 0x3e,
  0x2d, 0x0e, 0x33, 0xbe, 0xc0, 0x7f, 0x6e, 0xbe, 0x9e, 0xf7, 0xd3, 0x3c,
  0x94, 0x4d, 0x93, 0xbd, 0x95, 0x23, 0x18, 0x3d, 0x6d, 0xa9, 0x93, 0x3d,
  0x58, 0x96, 0x23, 0xbe, 0xcb, 0xac, 0x08, 0x3d, 0x1a, 0xa4, 0xdf, 0x3c,
  0x83, 0x1e, 0xec, 0xbd, 0xdd, 0x2a, 0xbd, 0xbd, 0x9a, 0x47, 0x14, 0x3e,
  0xca, 0x07, 0x5d, 0xbd, 0x20, 0xde, 0xb3, 0xbc, 0x94, 0xa0, 0x00, 0x3f,
  0x46, 0x48, 0xf1, 0xbb, 0x64, 0x2d, 0x3b, 0x39, 0xe4, 0x56, 0x78, 0xbd,
  0x9d, 0x4f, 0xf6, 0xbd, 0x06, 0x13, 0x8f, 0x3c, 0xf4, 0x9e, 0x16, 0xbe,
  0x0a, 0x8f, 0xa7, 0x3d, 0x78, 0x20, 0x2c, 0xbd, 0x78, 0xf5, 0x52, 0x3d,
  0xb3, 0x19, 0xc1, 0x3c, 0xe7, 0x57, 0x60, 0xbd, 0xd1, 0x88, 0x46, 0xbe,
  0xe4, 0x0e, 0x0b, 0x3d, 0xd2, 0x3e, 0x9a, 0xbd, 0x69, 0xed, 0x80, 0xbd,
  0x09, 0xa8, 0x65, 0xbd, 0x7a, 0x28, 0xeb, 0x3c, 0xd6, 0xec, 0x5a, 0xbc,
  0x2c, 0x40, 0xce, 0xbc, 0xe5, 0xb2, 0x2b, 0xbe, 0xcf, 0x35, 0x91, 0x3d,
  0x52, 0xfb, 0xc5, 0x3c, 0x42, 0x6b, 0x82, 0x3e, 0x85, 0x4c, 0x6f, 0x3e,
  0x21, 0xde, 0x50, 0x3e, 0xd7, 0x17, 0xc1, 0xbd, 0x3d, 0x25, 0x8b, 0xbd,
  0x7c, 0xb9, 0x13, 0x3e, 0x38, 0xae, 0xeb, 0xbd, 0x89, 0xa7, 0x97, 0x3e,
  0xf3, 0xc9, 0xd8, 0x3d, 0x8d, 0x53, 0x8a, 0x3e, 0x6b, 0x47, 0x39, 0xbe,
  0x5d, 0x7b, 0x17, 0xbe, 0x15, 0x11, 0x8f, 0xbd, 0x94, 0x55, 0x24, 0x3e,
  0xe6, 0x69, 0x30, 0xbe, 0xb6, 0xf6, 0xbf, 0xbd, 0x50, 0x29, 0x83, 0x39,
  0xbd, 0xc7, 0xac, 0x3e, 0x30, 0x4d, 0x0e, 0x3e, 0x8e, 0xa4, 0x72, 0xbe,
  0x86, 0x23, 0x27, 0xbe, 0x07, 0x1f, 0x50, 0x3d, 0x53, 0x34, 0xa3, 0xbe,
  0x3f, 0x49, 0x93, 0x3c, 0xda, 0x38, 0xa4, 0xbd, 0xf6, 0x8f, 0xf5, 0x3d,
  0xec, 0x3b, 0x23, 0x3e, 0x0e, 0x5b, 0x4b, 0xbe, 0x88, 0xd3, 0x51, 0xbd,
  0x3c, 0x1b, 0x36, 0x3e, 0x95, 0x30, 0x24, 0xbe, 0x7f, 0xfa, 0xa7, 0xbd,
  0x11, 0xe9, 0x12, 0xbe, 0xd8, 0x98, 0x90, 0xbd, 0x7f, 0xba, 0x0e, 0x3e,
  0x76, 0xab, 0xf2, 0x3e, 0xbd, 0x43, 0x56, 0xbe, 0x5a, 0x92, 0xe1, 0x3d,
  0xb1, 0x6d, 0x8b, 0xbe, 0xa3, 0xc8, 0xd8, 0xbd, 0xec, 0x93, 0x71, 0x3d,
  0xd8, 0x71, 0x05, 0xbe, 0x95, 0x5d, 0x83, 0x3d, 0x39, 0x73, 0x33, 0xbc,
  0x07, 0x7a, 0xa4, 0xbe, 0x3f, 0xc5, 0x7d, 0x3d, 0xb0, 0xe4, 0x9c, 0xbe,
  0x09, 0xe9, 0xc7, 0xbd, 0xc6, 0xb4, 0x98, 0xbd, 0x7d, 0x05, 0xb8, 0xbd,
  0xa9, 0xb4, 0xa4, 0xbd, 0x3b, 0x1a, 0x86, 0xbd, 0x4d, 0xd9, 0xb0, 0xbe,
  0x54, 0x71, 0x1b, 0x3e, 0x2e, 0x73, 0xa2, 0xbe, 0xf7, 0xca, 0x1d, 0xbd,
  0x98, 0xc8, 0x2b, 0x3d, 0x2e, 0x0a, 0x1f, 0xbd, 0x7a, 0x24, 0x7d, 0xbe,
  0x72, 0x57, 0x01, 0xbe, 0x42, 0x3f, 0xb0, 0xbe, 0x4e, 0x15, 0x1e, 0x3e,
  0x9b, 0x92, 0x87, 0xbe, 0xeb, 0x47, 0x0b, 0x3e, 0x65, 0xd3, 0xe5, 0x3d,
  0xb6, 0x6e, 0x48, 0xbd, 0xe4, 0x97, 0x98, 0xbe, 0x24, 0x01, 0x0a, 0xbd,
  0xb7, 0x2b, 0xcd, 0xbd, 0x5d, 0xe5, 0x56, 0x3e, 0x2b, 0x9b, 0x69, 0xbd,
  0xd2, 0xd2, 0xd3, 0xbe, 0x9e, 0x98, 0x99, 0x3e, 0xfd, 0x09, 0x09, 0xbd,
  0xc4, 0x75, 0x7b, 0xbe, 0x93, 0x44, 0x5f, 0xbd, 0x6c, 0x47, 0x07, 0xbe,
  0x57, 0x5c, 0x24, 0x3e, 0x6b, 0x9e, 0xe1, 0xbd, 0xd0, 0xcc, 0x97, 0xbe,
  0x30, 0x77, 0xf3, 0xbc, 0x46, 0xa1, 0x05, 0x3c, 0xbc, 0x53, 0xe7, 0xbd,
  0x47, 0x41, 0x8a, 0xbc, 0x15, 0x1e, 0xc6, 0xbd, 0xac, 0xe0, 0x1e, 0x3e,
  0x2f, 0x20, 0x86, 0xbd, 0x56, 0x80, 0x6e, 0xbd, 0x1c, 0x8c, 0x04, 0xbe,
  0xfc, 0x1a, 0x0b, 0x3e, 0x98, 0x46, 0xb9, 0x3d, 0x8f, 0xbe, 0x34, 0xbc,
  0x2f, 0x98, 0x40, 0x3d, 0x40, 0x6e, 0x0d, 0x3e, 0x9a, 0xbd, 0x51, 0x3d,
  0xcc, 0xa7, 0x28, 0x3f, 0xf2, 0x08, 0xcf, 0xbd, 0x1f, 0x8d, 0xf8, 0xbe,
  0x2f, 0x39, 0x48, 0x3c, 0x00, 0xc0, 0xfd, 0xbc, 0xb4, 0x81, 0xe6, 0xbe,
  0x82, 0xda, 0x51, 0xbc, 0x11, 0x7a, 0xbc, 0xbd, 0xfe, 0x6f, 0x1a, 0xbe,
  0xa0, 0xc6, 0x14, 0xbe, 0x89, 0x48, 0xc6, 0xbe, 0x65, 0xa7, 0x86, 0xbd,
  0xa5, 0x94, 0xd9, 0x3d, 0x80, 0xf3, 0xde, 0xbe, 0x25, 0x96, 0x86, 0xbd,
  0x13, 0x77, 0xbb, 0x3d, 0xe9, 0x8d, 0x66, 0x3e, 0xca, 0xc1, 0x82, 0xbd,
  0x01, 0xb9, 0x9f, 0x3d, 0x0f, 0x4d, 0x79, 0xbe, 0x58, 0xec, 0xab, 0xbd,
  0x78, 0xf9, 0x00, 0xbf, 0x8c, 0x8d, 0x8e, 0x3e, 0xdd, 0xa8, 0x05, 0xbe,
  0x80, 0xe2, 0x61, 0x3e, 0x76, 0xac, 0x31, 0x3d, 0xda, 0xe1, 0x1f, 0x3e,
  0xd7, 0xa1, 0xe3, 0xbe, 0xe4, 0x1d, 0x62, 0xbe, 0xc2, 0xf2, 0xea, 0x3c,
  0xff, 0x13, 0x87, 0x3e, 0x65, 0xad, 0x47, 0xbe, 0x3a, 0x25, 0xbe, 0xbe,
  0x24, 0xeb, 0x0c, 0x3e, 0x66, 0x10, 0x62, 0xbf, 0xd6, 0xd1, 0xff, 0xbe,
  0x85, 0x1e, 0x90, 0xbe, 0x21, 0x54, 0x6d, 0xbe, 0x75, 0x86, 0xc5, 0xbe,
  0x4e, 0x8e, 0x55, 0xbe, 0xb0, 0x3c, 0xaa, 0xbd, 0x73, 0x55, 0x5e, 0xbe,
  0xa3, 0xaa, 0xfb, 0xbe, 0x75, 0x41, 0x28, 0xbf, 0x97, 0x4b, 0x04, 0xbf,
  0x0c, 0xa0, 0x6c, 0xbf, 0x25, 0x1c, 0xe3, 0x3d, 0x00, 0x60, 0xdb, 0xbd,
  0x51, 0x1a, 0xb6, 0x3d, 0x6c, 0xc0, 0xb9, 0x3d, 0x46, 0x21, 0x9f, 0xbe,
  0x31, 0xec, 0x58, 0xb9, 0x55, 0x8d, 0x83, 0xbe, 0xb3, 0x9a, 0x02, 0xbf,
  0x1d, 0x0e, 0xa9, 0x3e, 0xf3, 0xcb, 0x97, 0x3d, 0x0d, 0xd5, 0x08, 0x3e,
  0x48, 0x84, 0x3c, 0x3d, 0x21, 0xd1, 0x15, 0x3e, 0xbd, 0x1e, 0xa6, 0x3e,
  0x36, 0x53, 0x67, 0x3d, 0xcf, 0xd0, 0x1f, 0xbf, 0x97, 0xfd, 0x22, 0x3e,
  0x4e, 0x76, 0x41, 0x3e, 0xe9, 0xd9, 0x13, 0x3e, 0x97, 0xe7, 0xbd, 0x3c,
  0x72, 0xe1, 0x45, 0xbe, 0x78, 0x2a, 0x35, 0x3d, 0x4b, 0xdd, 0xb4, 0xbe,
  0x22, 0x1d, 0xca, 0x3e, 0x18, 0x76, 0xdb, 0xbb, 0x33, 0x11, 0x4c, 0xbd,
  0x28, 0xfd, 0x3e, 0x3e, 0x9c, 0x2c, 0x61, 0xbe, 0x8f, 0x1a, 0xaf, 0xbe,
  0x17, 0x31, 0x5c, 0xbe, 0xc4, 0x06, 0x9f, 0xbe, 0x3a, 0xf4, 0x17, 0xbe,
  0xf5, 0x81, 0x18, 0xbe, 0x56, 0xb9, 0x15, 0xbe, 0xa8, 0x7f, 0xd7, 0x3d,
  0xc4, 0x73, 0xce, 0xbd, 0x4d, 0xc9, 0xeb, 0xbd, 0x22, 0x31, 0x5c, 0xbe,
  0xb9, 0x14, 0x2b, 0xbe, 0x24, 0xd9, 0x4f, 0xbf, 0xa9, 0x81, 0x65, 0x3d,
  0x81, 0xce, 0xe7, 0xbd, 0x61, 0xcb, 0x3e, 0xbd, 0x9c, 0x4a, 0x59, 0x3d,
  0x99, 0x13, 0x7f, 0x3d, 0x93, 0x3d, 0x43, 0x3e, 0xf1, 0x1f, 0x41, 0x3e,
  0xfa, 0x1e, 0xe5, 0xbe, 0xc8, 0x51, 0xbf, 0x3e, 0xb9, 0x0f, 0x34, 0x3e,
  0xb5, 0xb7, 0x42, 0xbd, 0x26, 0xe3, 0x16, 0xbd, 0x46, 0xa4, 0x63, 0xbd,
  0x8e, 0x79, 0xd5, 0xbd, 0xe9, 0xa6, 0xcc, 0xbc, 0x0e, 0xbe, 0xb8, 0x3a,
  0xad, 0xa2, 0xb0, 0xbe, 0xb0, 0xea, 0x85, 0xbe, 0xbf, 0xa9, 0x8e, 0xbe,
  0x5f, 0x42, 0x56, 0xbe, 0xf1, 0x3d, 0x0b, 0x3f, 0x9c, 0xc7, 0x07, 0xbd,
  0xb9, 0x83, 0x9d, 0xbd, 0x06, 0x86, 0x05, 0x3d, 0x12, 0xc3, 0x7c, 0xbe,
  0x31, 0xf0, 0x37, 0xbe, 0x1a, 0xa9, 0x12, 0x3e, 0xfe, 0xf6, 0xe5, 0x3d,
  0xea, 0x42, 0x03, 0xbe, 0xb2, 0xaa, 0x84, 0x3e, 0x28, 0x8b, 0x38, 0xbe,
  0x28, 0x44, 0xa5, 0x3c, 0x26, 0x81, 0x5c, 0x3e, 0xda, 0x8d, 0x11, 0xbe,
  0x43, 0x61, 0xde, 0x3d, 0xe1, 0xa1, 0x40, 0xbf, 0xf4, 0xb7, 0x09, 0xbe,
  0x09, 0xba, 0xcd, 0x3c, 0xfc, 0x9e, 0x41, 0xbe, 0x6c, 0xfd, 0x93, 0xbc,
  0x8c, 0x56, 0xc5, 0x3c, 0xb5, 0x20, 0xd3, 0xbd, 0xfa, 0x5c, 0x9a, 0x3e,
  0xc8, 0x71, 0x58, 0xbe, 0xcf, 0x73, 0x42, 0x3d, 0x97, 0x9b, 0x4f, 0x3e,
  0x0e, 0xc2, 0xe5, 0xbd, 0xd6, 0xdc, 0x73, 0x3d, 0xaf, 0xfc, 0xa3, 0xbd,
  0x8d, 0xb6, 0xd9, 0xbc, 0x40, 0x9b, 0x18, 0xbd, 0x73, 0x94, 0x8d, 0x3e,
  0x43, 0x01, 0x84, 0x3d, 0x11, 0x7a, 0xdb, 0x3d, 0x79, 0xa6, 0x7e, 0xbe,
  0x38, 0xb6, 0x93, 0x3e, 0x96, 0x32, 0x42, 0x3c, 0x99, 0x6c, 0x56, 0xbd,
  0x82, 0x7a, 0x37, 0x3e, 0x44, 0x7b, 0x7f, 0xbe, 0x24, 0xe4, 0xe4, 0xbe,
  0x00, 0xd4, 0x9d, 0x3e, 0x22, 0x1e, 0xc1, 0xbe, 0xed, 0x49, 0x2a, 0x3d,
  0x7a, 0x0b, 0x54, 0x3e, 0x74, 0x8d, 0xb7, 0x3d, 0xee, 0x6e, 0x56, 0x3d,
  0x50, 0xb5, 0x96, 0x3d, 0x69, 0xb3, 0xf7, 0xbe, 0x02, 0x3f, 0x1c, 0xbf,
  0x0c, 0x22, 0x30, 0xbe, 0x99, 0x69, 0x05, 0xbf, 0x05, 0xdf, 0x41, 0xbe,
  0x55, 0xb4, 0x35, 0xbe, 0xaa, 0x6a, 0xdb, 0xbe, 0xaa, 0xf1, 0x0c, 0x3e,
  0xc6, 0xde, 0xff, 0xff, 0x10, 0x00, 0x00, 0x00, 0x08, 0x00, 0x00, 0x00,
  0x1c, 0x00, 0x00, 0x00, 0x38, 0x00, 0x00, 0x00, 0x04, 0x00, 0x00, 0x00,
  0x10, 0x00, 0x00, 0x00, 0x04, 0x00, 0x00, 0x00, 0x01, 0x00, 0x00, 0x00,
  0x08, 0x00, 0x00, 0x00, 0x1a, 0x00, 0x00, 0x00, 0x73, 0x65, 0x71, 0x75,
  0x65, 0x6e, 0x74, 0x69, 0x61, 0x6c, 0x2f, 0x63, 0x6f, 0x6e, 0x76, 0x32,
  0x64, 0x5f, 0x31, 0x2f, 0x43, 0x6f, 0x6e, 0x76, 0x32, 0x44, 0x00, 0x00,
  0xc0, 0xde, 0xff, 0xff, 0xb6, 0xdf, 0xff, 0xff, 0x04, 0x00, 0x00, 0x00,
  0x80, 0x01, 0x00, 0x00, 0xc6, 0xbc, 0xb7, 0xbd, 0x14, 0x24, 0x83, 0x3d,
  0xbd, 0xb7, 0x87, 0x3d, 0x15, 0xfc, 0x99, 0xbc, 0x76, 0xcb, 0xa9, 0xbe,
  0x3b, 0xf4, 0xb2, 0xbe, 0x92, 0xee, 0xea, 0x3d, 0xb3, 0x9b, 0xb7, 0x3e,
  0x56, 0x30, 0x12, 0x3e, 0x1e, 0x50, 0xe1, 0x3d, 0x78, 0xda, 0xd8, 0x3d,
  0x0c, 0xe2, 0xb3, 0x3e, 0xbe, 0x2c, 0xb0, 0x3e, 0x4c, 0xf4, 0x8f, 0xbe,
  0xff, 0xee, 0x71, 0x3d, 0xfb, 0xeb, 0x45, 0x3e, 0xf9, 0x4b, 0xe7, 0x3e,
  0xc6, 0xfa, 0x2c, 0xbe, 0x73, 0x52, 0x75, 0xbe, 0xd9, 0x1d, 0x4d, 0xbd,
  0x0a, 0xf4, 0x17, 0x3e, 0xcd, 0x8d, 0x32, 0xbc, 0xbb, 0x89, 0xcd, 0xba,
  0xc0, 0xbb, 0x8a, 0xbd, 0xc3, 0xa3, 0x52, 0xbc, 0x9b, 0x89, 0x2b, 0x3e,
  0xab, 0x73, 0x40, 0xbe, 0x68, 0xa7, 0xc9, 0xbc, 0x02, 0xd4, 0xee, 0x3d,
  0x50, 0x11, 0x06, 0xbe, 0xe2, 0x6f, 0x5d, 0x3d, 0x8f, 0xd5, 0x9f, 0x3d,
  0x94, 0x11, 0x43, 0xbd, 0xfa, 0x71, 0x29, 0x3e, 0x26, 0x78, 0xc0, 0xbb,
  0x9e, 0x4b, 0x92, 0xbc, 0x41, 0x68, 0x81, 0x3e, 0xaa, 0x58, 0x1a, 0x3e,
  0xbb, 0x12, 0x92, 0x3d, 0xbb, 0xbe, 0x1e, 0x3e, 0xfb, 0xb3, 0x35, 0x3e,
  0x7a, 0x95, 0x19, 0x3e, 0xce, 0x5f, 0x79, 0x3d, 0x0a, 0x2a, 0xef, 0x3d,
  0x03, 0x9f, 0x09, 0x3e, 0x9b, 0xe4, 0xa4, 0xbc, 0x6e, 0x27, 0x4a, 0x3b,
  0xe0, 0x97, 0x60, 0x3d, 0xd2, 0x32, 0xc1, 0xbe, 0xda, 0x52, 0x47, 0x3e,
  0x1b, 0x40, 0xb8, 0x3d, 0xc0, 0x44, 0x21, 0x3d, 0xc2, 0xe9, 0x82, 0x3e,
  0x99, 0x22, 0x84, 0x3d, 0xb1, 0x01, 0x5e, 0x3e, 0x47, 0xb3, 0x86, 0xbe,
  0x4c, 0xe8, 0xa1, 0xbd, 0x81, 0x83, 0x3c, 0x3e, 0x81, 0x56, 0x39, 0xbe,
  0x7b, 0x72, 0x0f, 0x3b, 0x7c, 0x70, 0xae, 0x3c, 0xed, 0xb4, 0x33, 0x3c,
  0xa2, 0x15, 0x38, 0x3e, 0xe7, 0x0b, 0xd2, 0xbc, 0x12, 0x72, 0x0c, 0x3d,
  0x1c, 0xf7, 0xb3, 0x3d, 0x88, 0xce, 0x23, 0x3c, 0x5a, 0xb2, 0x5d, 0x3d,
  0x43, 0xb8, 0xee, 0x3d, 0x68, 0x31, 0x53, 0xbe, 0xeb, 0x1a, 0x04, 0x3e,
  0x25, 0xb7, 0xd7, 0x3c, 0xe4, 0xb4, 0x5d, 0x3c, 0x92, 0x6f, 0xbb, 0x3d,
  0x7c, 0x18, 0x1d, 0xbe, 0x0e, 0xb7, 0xcd, 0x3e, 0x59, 0xf1, 0x99, 0x3e,
  0x1e, 0x4c, 0xe0, 0x3d, 0x6a, 0x94, 0x52, 0xbd, 0x76, 0xf0, 0xd8, 0xbd,
  0xfc, 0xc2, 0x7b, 0x3e, 0xc0, 0x84, 0xaa, 0xbe, 0x34, 0xd8, 0x6c, 0xbe,
  0x35, 0x82, 0x94, 0xbd, 0x80, 0xca, 0xb6, 0x3c, 0xf3, 0x6c, 0x96, 0xbd,
  0xfe, 0x9e, 0xbb, 0x3c, 0xd6, 0x34, 0xd3, 0xbc, 0x5f, 0xac, 0x95, 0xbe,
  0xa8, 0xb3, 0x0d, 0xbd, 0x7c, 0x51, 0xee, 0x3c, 0xa8, 0x2a, 0xc5, 0xbc,
  0x71, 0xcf, 0x49, 0x3d, 0xd1, 0xcf, 0xa5, 0xbc, 0xed, 0xa0, 0x8d, 0x3e,
  0xdc, 0x76, 0x76, 0xbd, 0x9e, 0xe0, 0xff, 0xff, 0x10, 0x00, 0x00, 0x00,
  0x07, 0x00, 0x00, 0x00, 0x1c, 0x00, 0x00, 0x00, 0x38, 0x00, 0x00, 0x00,
  0x04, 0x00, 0x00, 0x00, 0x08, 0x00, 0x00, 0x00, 0x04, 0x00, 0x00, 0x00,
  0x03, 0x00, 0x00, 0x00, 0x01, 0x00, 0x00, 0x00, 0x18, 0x00, 0x00, 0x00,
  0x73, 0x65, 0x71, 0x75, 0x65, 0x6e, 0x74, 0x69, 0x61, 0x6c, 0x2f, 0x63,
  0x6f, 0x6e, 0x76, 0x32, 0x64, 0x2f, 0x43, 0x6f, 0x6e, 0x76, 0x32, 0x44,
  0x00, 0x00, 0x00, 0x00, 0x98, 0xe0, 0xff, 0xff, 0x8e, 0xe1, 0xff, 0xff,
  0x04, 0x00, 0x00, 0x00, 0x00, 0x01, 0x00, 0x00, 0xfc, 0x1b, 0x8e, 0x3e,
  0xca, 0x7b, 0x13, 0xbe, 0xb5, 0x9f, 0xa1, 0x3e, 0x41, 0x11, 0xb3, 0x3e,
  0x6a, 0xff, 0xd2, 0x3e, 0xc7, 0x47, 0x25, 0xbe, 0x9d, 0x69, 0x2a, 0xbe,
  0x54, 0x53, 0x4f, 0x3e, 0x85, 0x47, 0xac, 0x3e, 0x75, 0x9d, 0x7c, 0x3e,
  0x5d, 0x72, 0x64, 0xbe, 0xb0, 0xe4, 0x0d, 0x3e, 0x8a, 0x1d, 0xe8, 0x3d,
  0x92, 0x9e, 0x81, 0x3d, 0xa7, 0xa4, 0xa6, 0x3e, 0x39, 0x82, 0xf5, 0x3d,
  0x76, 0xf8, 0xc4, 0x3e, 0x36, 0xe8, 0x3d, 0xbe, 0xd5, 0x36, 0xf0, 0xbe,
  0x00, 0x26, 0xac, 0x3e, 0x8e, 0xd1, 0xba, 0x3e, 0xb2, 0xe1, 0x32, 0xbb,
  0x82, 0x54, 0x1b, 0x3b, 0x19, 0xcf, 0xaa, 0x3e, 0x8c, 0x8f, 0xb4, 0x3e,
  0x7b, 0xe9, 0x95, 0x3e, 0x8b, 0x2e, 0x26, 0xbd, 0xad, 0x00, 0x04, 0xbf,
  0xa3, 0x6d, 0xd7, 0x3d, 0xf2, 0x86, 0x2e, 0x3e, 0x5e, 0x36, 0xbf, 0x3e,
  0x02, 0xb6, 0xee, 0xbe, 0xbc, 0xe2, 0xb3, 0x3e, 0x88, 0x5f, 0x42, 0xbe,
  0x72, 0x27, 0x28, 0xbd, 0xd0, 0x23, 0xd5, 0x3e, 0x57, 0xb1, 0xac, 0x3e,
  0xe6, 0xc7, 0xc1, 0x3d, 0x03, 0xe7, 0xb0, 0xbe, 0xa7, 0x91, 0x4c, 0x3e,
  0x17, 0x4d, 0xa7, 0x3e, 0x19, 0x84, 0x50, 0x3e, 0xaf, 0xf5, 0x4b, 0x3e,
  0x3c, 0x82, 0x8e, 0x3e, 0xe3, 0xe0, 0x27, 0x3e, 0x2d, 0xa2, 0x47, 0xbe,
  0x33, 0x5c, 0x98, 0x3e, 0x4e, 0x05, 0x7b, 0xbe, 0x76, 0xd7, 0xd5, 0x3e,
  0x17, 0xab, 0x6a, 0xbe, 0x2d, 0x31, 0x27, 0xbe, 0x8a, 0x99, 0xb8, 0x3e,
  0x7f, 0x74, 0x99, 0x3e, 0xa6, 0x2b, 0x5f, 0x3e, 0xc2, 0xf5, 0x5b, 0x3d,
  0x01, 0x47, 0xb0, 0x3e, 0xea, 0x1f, 0x50, 0x3e, 0x7d, 0x27, 0x69, 0x3e,
  0xc8, 0x0b, 0xa1, 0x3e, 0x2f, 0xde, 0x1b, 0xbe, 0xeb, 0xdb, 0xb3, 0x3d,
  0x9e, 0x64, 0x47, 0x3d, 0x31, 0x36, 0x95, 0x3e, 0xa1, 0x46, 0x13, 0xbe,
  0xf6, 0xe1, 0xff, 0xff, 0x10, 0x00, 0x00, 0x00, 0x06, 0x00, 0x00, 0x00,
  0x14, 0x00, 0x00, 0x00, 0x30, 0x00, 0x00, 0x00, 0x02, 0x00, 0x00, 0x00,
  0x04, 0x00, 0x00, 0x00, 0x10, 0x00, 0x00, 0x00, 0x19, 0x00, 0x00, 0x00,
  0x73, 0x65, 0x71, 0x75, 0x65, 0x6e, 0x74, 0x69, 0x61, 0x6c, 0x2f, 0x64,
  0x65, 0x6e, 0x73, 0x65, 0x5f, 0x31, 0x2f, 0x4d, 0x61, 0x74, 0x4d, 0x75,
  0x6c, 0x00, 0x00, 0x00, 0xe8, 0xe1, 0xff, 0xff, 0xde, 0xe2, 0xff, 0xff,
  0x04, 0x00, 0x00, 0x00, 0x00, 0x1c, 0x00, 0x00, 0xe4, 0x94, 0x71, 0xbd,
  0xf4, 0xe9, 0x25, 0x3e, 0x01, 0x03, 0xb2, 0x3d, 0xf9, 0x99, 0x35, 0xbf,
  0x87, 0xac, 0x84, 0xbe, 0x96, 0x81, 0x8e, 0xbe, 0x19, 0xe3, 0x62, 0x3e,
  0xa9, 0xd8, 0x52, 0xbd, 0xb8, 0x87, 0xff, 0xbd, 0x7a, 0x58, 0xbf, 0x3e,
  0xe5, 0xe7, 0xb4, 0xbe, 0x8b, 0xc5, 0x8f, 0xbd, 0xe3, 0xcc, 0xf2, 0xbd,
  0x12, 0x7c, 0x2c, 0xbe, 0xb1, 0xbb, 0x58, 0xbe, 0x7b, 0xfe, 0x1e, 0xbe,
  0x80, 0xdf, 0x52, 0x3e, 0xcf, 0x8c, 0x89, 0xbd, 0xfe, 0x9c, 0xcc, 0x3d,
  0x62, 0x9a, 0x3a, 0xbe, 0xec, 0x9b, 0x0d, 0xbf, 0xf2, 0x4f, 0x54, 0xbe,
  0x0a, 0xc6, 0xdc, 0x3e, 0x6f, 0x77, 0xdd, 0x3d, 0xe6, 0x8a, 0xbf, 0x3e,
  0xae, 0x67, 0xaf, 0x3d, 0xd1, 0xcd, 0x86, 0xbe, 0xf9, 0xc6, 0xb0, 0x3d,
  0xb8, 0x09, 0x97, 0x3e, 0x8f, 0x37, 0x70, 0x3e, 0x68, 0x22, 0xda, 0xbc,
  0xf8, 0x66, 0xaf, 0xbd, 0x2e, 0x78, 0xc1, 0x3c, 0x4a, 0x9b, 0x94, 0x3b,
  0xee, 0x64, 0x84, 0x3d, 0x1c, 0xb7, 0x55, 0xbe, 0xdc, 0x66, 0xec, 0xbe,
  0x09, 0x53, 0x13, 0xbc, 0xac, 0x2d, 0xaa, 0x3e, 0xc3, 0xba, 0x3f, 0x3d,
  0xc1, 0xc2, 0x04, 0x3f, 0xf6, 0xd9, 0xf4, 0x3d, 0x8a, 0x99, 0x61, 0xbe,
  0x0f, 0xb8, 0x71, 0x3e, 0x24, 0xfb, 0x9e, 0x3d, 0x9c, 0xf9, 0x1e, 0x3e,
  0x23, 0xe6, 0x0c, 0x3e, 0xeb, 0x02, 0x02, 0x3e, 0xf6, 0x07, 0x7a, 0x3d,
  0x5d, 0x8f, 0x21, 0x3d, 0xbe, 0x62, 0x9b, 0x3d, 0x89, 0xaa, 0xf1, 0xbd,
  0xf9, 0x90, 0xc4, 0xbe, 0x6f, 0x82, 0x8d, 0xbe, 0x09, 0xd1, 0x70, 0x3e,
  0x62, 0x4d, 0xf9, 0x3b, 0x10, 0x5e, 0xd2, 0x3e, 0x44, 0x58, 0x38, 0x3e,
  0xbc, 0x6b, 0x27, 0xbe, 0xa6, 0x31, 0xcf, 0xbc, 0x3e, 0xc1, 0x47, 0xbd,
  0x73, 0x97, 0x05, 0xbd, 0xbb, 0x83, 0xe2, 0x3e, 0x32, 0x2c, 0x09, 0xbe,
  0x73, 0x8c, 0x0a, 0xbe, 0x7f, 0x0a, 0xbb, 0x3d, 0x8b, 0xab, 0xdd, 0x3d,
  0x21, 0x54, 0x54, 0xbe, 0x35, 0x6e, 0xf8, 0xbc, 0xf6, 0x15, 0x85, 0x3c,
  0x92, 0x64, 0xa8, 0x3e, 0x15, 0xa0, 0x8f, 0x3d, 0xe2, 0xc4, 0xb2, 0x3e,
  0x0d, 0xb6, 0xf1, 0x3d, 0xfe, 0x5d, 0xaf, 0xbe, 0x59, 0x46, 0xb0, 0xbc,
  0xcc, 0x47, 0xc6, 0x3c, 0x58, 0x3b, 0x4d, 0xbc, 0x25, 0xd8, 0x14, 0x3e,
  0x51, 0x7d, 0x46, 0xbb, 0xd5, 0xf9, 0x0c, 0x3d, 0xd0, 0xfe, 0xcc, 0x3d,
  0x51, 0x05, 0x47, 0xbe, 0x25, 0x5d, 0xf4, 0xbe, 0xae, 0xd8, 0x06, 0xbe,
  0x4b, 0xef, 0x83, 0xbe, 0xb6, 0xf1, 0xaf, 0x3e, 0xce, 0x97, 0x35, 0x3d,
  0x08, 0x9b, 0x85, 0x3e, 0x9d, 0x50, 0x1f, 0x3e, 0x37, 0x00, 0x10, 0xbf,
  0xe2, 0xff, 0x84, 0xbe, 0x4f, 0x84, 0xa3, 0xbc, 0x0c, 0xb6, 0x27, 0xbe,
  0x4e, 0x76, 0xf2, 0x3d, 0x99, 0x93, 0xb3, 0x3d, 0xba, 0x2a, 0x27, 0x3e,
  0x05, 0xe6, 0x8f, 0x39, 0x1f, 0x83, 0x32, 0xbe, 0x83, 0x0c, 0x7c, 0xbd,
  0x03, 0xaf, 0xc4, 0x3c, 0x80, 0xdb, 0xeb, 0x3e, 0xe0, 0xe3, 0xfd, 0xbc,
  0x18, 0x02, 0x84, 0x3c, 0xd0, 0xf6, 0x4d, 0xbe, 0x97, 0xef, 0xab, 0x3d,
  0x3a, 0x8d, 0x01, 0xbf, 0x97, 0xf3, 0x06, 0xbc, 0x5f, 0x7b, 0x9d, 0xbd,
  0xc2, 0x73, 0x25, 0x3e, 0x7c, 0xe2, 0x67, 0x3d, 0xa6, 0x91, 0x29, 0x3c,
  0x7f, 0x74, 0xbc, 0xbe, 0xd6, 0x07, 0x0b, 0xbd, 0xc2, 0x87, 0xa5, 0xbd,
  0xab, 0x98, 0x6a, 0x3d, 0xb8, 0x36, 0x88, 0x3d, 0x0e, 0x00, 0xe5, 0x3f,
  0x32, 0x7a, 0x17, 0xbf, 0xbb, 0xcc, 0x46, 0xbd, 0xa2, 0x07, 0xcf, 0x3d,
  0x4c, 0xa1, 0x86, 0x3d, 0x8c, 0x5b, 0x25, 0x3e, 0xbe, 0x86, 0x93, 0x3e,
  0x1d, 0xe8, 0x31, 0xbd, 0xde, 0x85, 0x8b, 0xbe, 0x65, 0x69, 0x81, 0xbe,
  0xb2, 0x9e, 0x92, 0xbe, 0x74, 0xe6, 0xba, 0xbc, 0x0f, 0x83, 0xb2, 0x3c,
  0xb1, 0x10, 0x89, 0xbc, 0x4e, 0xe7, 0xe9, 0x3d, 0x31, 0xd8, 0xce, 0x3d,
  0x2d, 0xde, 0x0b, 0x40, 0x50, 0x9f, 0xe1, 0xbe, 0xff, 0xa0, 0xa8, 0xbd,
  0xd3, 0x06, 0x9e, 0xbe, 0xe8, 0x1b, 0xe6, 0xbe, 0x51, 0xfd, 0x12, 0x3e,
  0x3e, 0xa0, 0xd0, 0xbe, 0xda, 0x94, 0x7e, 0x3e, 0x24, 0x06, 0xc2, 0xbe,
  0x0b, 0x41, 0x56, 0x3d, 0x45, 0xa7, 0x4f, 0xbe, 0xb4, 0x9b, 0x60, 0x3e,
  0x7d, 0x60, 0x65, 0x3d, 0x65, 0xfe, 0xac, 0x3d, 0x77, 0xe8, 0x6a, 0x3e,
  0xf3, 0x5d, 0x64, 0x3e, 0xf8, 0xae, 0x0c, 0x40, 0xa9, 0xb7, 0x28, 0xbe,
  0xd8, 0xec, 0xac, 0xbc, 0x97, 0x86, 0x65, 0xbe, 0x0b, 0x5b, 0xb4, 0xbe,
  0x2f, 0x89, 0x8f, 0x3e, 0xd0, 0x11, 0x95, 0xbd, 0x34, 0x91, 0xb3, 0xbd,
  0x00, 0xc8, 0x80, 0xbe, 0x59, 0x8d, 0x28, 0xbd, 0x40, 0x07, 0xa2, 0xbe,
  0x7e, 0xd5, 0x54, 0xbe, 0x29, 0x07, 0x34, 0x3e, 0x63, 0x4a, 0x10, 0x3e,
  0xc4, 0xf0, 0xee, 0x3d, 0xd4, 0xc6, 0xb8, 0x3e, 0x65, 0x79, 0x93, 0x3f,
  0xb2, 0x5f, 0x9d, 0xbe, 0xfc, 0xe4, 0xd3, 0x3c, 0x00, 0xdf, 0xc5, 0xbe,
  0xc9, 0x07, 0x76, 0xbe, 0x1d, 0x4f, 0xb5, 0x3d, 0x60, 0x27, 0x0f, 0x3e,
  0x80, 0xc7, 0x2b, 0xbe, 0x45, 0x6b, 0xd2, 0xbe, 0xd5, 0xad, 0x37, 0xbd,
  0xe2, 0xe4, 0xcc, 0xbd, 0xda, 0x97, 0xa8, 0xbe, 0x85, 0x63, 0xe3, 0x3d,
  0x27, 0xf0, 0x35, 0x3d, 0x8b, 0x23, 0x80, 0x3d, 0xd7, 0x00, 0xb8, 0x3e,
  0x6e, 0x28, 0xd5, 0x3f, 0x45, 0x50, 0xac, 0xbe, 0x10, 0x7e, 0xeb, 0x3c,
  0x28, 0xfc, 0xd2, 0xbd, 0xf9, 0xeb, 0x05, 0x3d, 0x1c, 0x58, 0xe0, 0x3d,
  0x87, 0x3c, 0x18, 0x3e, 0xe3, 0xaa, 0x0e, 0xbe, 0x64, 0x98, 0xc4, 0xbe,
  0x08, 0x45, 0x48, 0xbe, 0xfe, 0x57, 0x00, 0xbe, 0x3d, 0xde, 0x86, 0xbe,
  0xe1, 0x74, 0x56, 0xbe, 0xf6, 0x78, 0x2f, 0xbe, 0xd5, 0x8e, 0x5d, 0x3d,
  0x71, 0xfb, 0xe7, 0x3d, 0x35, 0x95, 0x06, 0x40, 0x6f, 0x1f, 0x18, 0xbf,
  0x88, 0x8a, 0x61, 0x3c, 0xe2, 0x9b, 0xa7, 0x3d, 0x04, 0xa0, 0x62, 0xbe,
  0xdf, 0x66, 0xb2, 0x3d, 0x71, 0x73, 0x8b, 0x3e, 0x74, 0x30, 0x61, 0xbc,
  0xba, 0x8d, 0xae, 0xbe, 0x46, 0x1f, 0xe0, 0xbe, 0x2c, 0xed, 0x0f, 0xbf,
  0xad, 0xc3, 0x83, 0xbe, 0xcd, 0xfd, 0x95, 0xbc, 0xd3, 0xc2, 0xfe, 0xbd,
  0x09, 0xfa, 0x42, 0x3c, 0xb7, 0x83, 0x99, 0x3b, 0x1e, 0xe2, 0x85, 0xbe,
  0xd4, 0x7d, 0x3a, 0xbe, 0xb7, 0xda, 0xa5, 0xbd, 0x98, 0xe4, 0x1a, 0x3b,
  0xcc, 0x1e, 0x95, 0xbd, 0xd8, 0xaf, 0xbc, 0x3d, 0x00, 0x0d, 0x54, 0x3d,
  0x72, 0x57, 0x6b, 0xbd, 0xdd, 0x91, 0xb3, 0xbe, 0x51, 0x8e, 0xb8, 0xbe,
  0x76, 0xe0, 0xb0, 0xbd, 0x34, 0x35, 0x27, 0xbd, 0x4f, 0xf4, 0xef, 0xbd,
  0x70, 0x7a, 0xd2, 0xbc, 0x11, 0x13, 0x60, 0xbe, 0x71, 0x02, 0x7b, 0xbe,
  0xcd, 0xd6, 0xb1, 0x3e, 0xe1, 0x92, 0xb3, 0x3e, 0x40, 0xe5, 0x1d, 0xbe,
  0x26, 0x10, 0xfd, 0xbb, 0x84, 0xcd, 0x12, 0xbe, 0x87, 0x11, 0x9a, 0xbe,
  0xc4, 0xff, 0x6c, 0xbe, 0xd9, 0x69, 0x8b, 0xbb, 0x65, 0x43, 0xa0, 0xbd,
  0xee, 0x7d, 0x95, 0xbe, 0xa0, 0x48, 0x87, 0xbe, 0x75, 0x77, 0xa7, 0xbd,
  0xb9, 0x54, 0x9e, 0x3d, 0xdb, 0x79, 0x3b, 0x3e, 0x39, 0x6b, 0x66, 0xbe,
  0x30, 0x28, 0x72, 0xbd, 0x59, 0xee, 0x1c, 0x3e, 0x2a, 0xf4, 0x70, 0x3e,
  0x0d, 0xa9, 0x91, 0xbe, 0x2f, 0xec, 0x26, 0xbe, 0xbd, 0x98, 0x7a, 0xbd,
  0xa5, 0x20, 0x3c, 0xbe, 0x67, 0x44, 0x0b, 0xbe, 0xde, 0x79, 0x87, 0xbe,
  0x69, 0xe7, 0x26, 0x3e, 0x6f, 0x2f, 0x22, 0xbd, 0x14, 0x50, 0x92, 0x3d,
  0x9e, 0x1f, 0x48, 0xbd, 0x27, 0x71, 0x27, 0x3e, 0x9b, 0xd3, 0x03, 0xbd,
  0x0d, 0x47, 0xf2, 0xbd, 0x4d, 0x68, 0xc8, 0x3c, 0x1d, 0xca, 0x9a, 0x3e,
  0xd9, 0x77, 0x58, 0x3e, 0x64, 0xf1, 0x92, 0xbe, 0xc0, 0x83, 0x52, 0xbc,
  0xb4, 0xd2, 0xb7, 0x3d, 0xc2, 0xce, 0x06, 0xbe, 0x7f, 0x10, 0x1f, 0x3d,
  0x19, 0xe5, 0xd4, 0xbc, 0x85, 0x0f, 0x28, 0x3e, 0x3c, 0x7f, 0xbc, 0xbd,
  0xfe, 0x68, 0x56, 0xbe, 0xe4, 0x10, 0x5d, 0x3c, 0x69, 0x45, 0x18, 0x3e,
  0x45, 0x97, 0x11, 0x3e, 0x62, 0xe0, 0x49, 0xbd, 0x1d, 0xe5, 0x58, 0xbe,
  0xde, 0x0e, 0xa6, 0x3e, 0x72, 0xf1, 0x57, 0x3e, 0xbb, 0x9e, 0x5c, 0xbe,
  0xf8, 0x2d, 0x0a, 0xbe, 0xff, 0x66, 0x06, 0xbe, 0x65, 0xf4, 0x58, 0xbe,
  0xde, 0x70, 0x20, 0xbe, 0xd4, 0x3b, 0x0c, 0xbe, 0x19, 0xc0, 0xf5, 0x3d,
  0xe0, 0x85, 0xef, 0xbd, 0x32, 0x1f, 0xb0, 0xbc, 0x74, 0xdd, 0xc1, 0xbd,
  0xab, 0x85, 0x25, 0xbd, 0xa9, 0x8a, 0xa2, 0x3d, 0x1d, 0x6a, 0x87, 0xbc,
  0xa5, 0x5a, 0x4d, 0xbe, 0xff, 0x80, 0x3b, 0x3e, 0xb9, 0x5b, 0x61, 0x3e,
  0x2a, 0x8f, 0x94, 0xbe, 0x83, 0xd2, 0x77, 0xbd, 0x69, 0x55, 0x0e, 0xbc,
  0x43, 0xc2, 0x3f, 0xbd, 0xee, 0xb6, 0x19, 0xbd, 0x96, 0xe6, 0x76, 0xbd,
  0x59, 0xa0, 0x10, 0x3e, 0xdc, 0xe1, 0xb3, 0x3c, 0x5f, 0xfd, 0x75, 0x3d,
  0xbd, 0xfe, 0xa0, 0xbe, 0xde, 0xeb, 0x13, 0xbe, 0x4f, 0x38, 0xc9, 0xbd,
  0xcc, 0xef, 0xab, 0xbd, 0xad, 0x9e, 0xe8, 0xbd, 0x34, 0x77, 0x89, 0x3d,
  0x7b, 0xc4, 0xe7, 0x3d, 0x84, 0xec, 0x95, 0xbe, 0x0a, 0xfd, 0x8d, 0x3b,
  0x7c, 0x1f, 0x2e, 0xbe, 0x70, 0xd1, 0xe1, 0xbc, 0x86, 0x47, 0xab, 0x3d,
  0xd7, 0xdf, 0x24, 0xbe, 0xe2, 0x52, 0x04, 0x3e, 0xd8, 0x30, 0xf4, 0x3c,
  0x4d, 0x24, 0xb2, 0x3c, 0x88, 0x39, 0xd3, 0xbd, 0xac, 0xf1, 0x9e, 0xbe,
  0x8e, 0x39, 0x92, 0x3d, 0xd5, 0xcd, 0xaa, 0xbe, 0x7c, 0xb1, 0x53, 0xbd,
  0x91, 0xdb, 0x6a, 0xbb, 0x19, 0x85, 0x23, 0xbd, 0x1b, 0x90, 0x09, 0xbe,
  0x48, 0x8d, 0x8a, 0xbd, 0x4b, 0xe5, 0x0a, 0x3c, 0xbb, 0xbc, 0x53, 0xbe,
  0xf1, 0xe9, 0x51, 0xbe, 0xe6, 0x91, 0x16, 0xbe, 0x60, 0x5f, 0x9b, 0xbe,
  0x64, 0x87, 0x4c, 0x3d, 0xbd, 0x36, 0x43, 0xbe, 0xb9, 0xfd, 0xaa, 0x3e,
  0x63, 0x3a, 0xb0, 0xbe, 0x50, 0x6a, 0x0f, 0xbf, 0xeb, 0x7a, 0x74, 0x3c,
  0x59, 0x59, 0x29, 0xbe, 0x07, 0xba, 0x0b, 0x3d, 0x23, 0x1b, 0x9e, 0x3d,
  0x98, 0x48, 0x07, 0xbe, 0xd2, 0x77, 0x3f, 0xbe, 0xb2, 0x8e, 0xc2, 0xbe,
  0x40, 0xc7, 0x7d, 0x3d, 0xec, 0xcd, 0x8e, 0xbe, 0x1a, 0x80, 0xa2, 0x3e,
  0x0a, 0xd0, 0x19, 0x3e, 0x64, 0x59, 0x14, 0xbe, 0xb4, 0x83, 0x02, 0xbd,
  0xd2, 0x40, 0x98, 0xbd, 0xa2, 0xca, 0x15, 0xbe, 0xd0, 0xf4, 0xf9, 0xbc,
  0xf4, 0xce, 0x3d, 0xbe, 0xf1, 0xac, 0x78, 0xbd, 0xc9, 0x86, 0x0c, 0xbe,
  0xb3, 0xcf, 0x14, 0xbd, 0xdb, 0x6b, 0x36, 0x3d, 0x79, 0x81, 0x56, 0xbe,
  0x2f, 0x9b, 0xe4, 0x3d, 0x33, 0x70, 0x71, 0xbe, 0x90, 0x6b, 0x8b, 0x3e,
  0x56, 0x8c, 0x79, 0x3d, 0x8d, 0x74, 0x15, 0x3e, 0x1f, 0x64, 0x1e, 0x3e,
  0x72, 0x6a, 0x38, 0x3d, 0x1b, 0x89, 0x22, 0x3e, 0x43, 0x19, 0xc1, 0xbd,
  0x2f, 0x2c, 0x99, 0xbd, 0xba, 0xd6, 0xdf, 0xbd, 0x70, 0x8c, 0x73, 0xbd,
  0x31, 0xb0, 0x7d, 0xbd, 0x14, 0xa2, 0x05, 0x3e, 0x59, 0xb4, 0x1e, 0xbd,
  0x74, 0xef, 0x97, 0x3e, 0xd8, 0x45, 0x62, 0x3e, 0xbf, 0x2d, 0xe5, 0xbd,
  0xac, 0xe3, 0xec, 0x3b, 0xfd, 0xe3, 0x4b, 0x3e, 0x4e, 0x17, 0x92, 0x3e,
  0xf5, 0xff, 0x76, 0x3e, 0xf4, 0xf1, 0x53, 0x3e, 0xf1, 0x76, 0x50, 0x3e,
  0xee, 0xe6, 0xf7, 0xbd, 0xe7, 0x9a, 0x53, 0xbe, 0x10, 0xfd, 0x26, 0xbd,
  0x5c, 0xfe, 0xc9, 0xbd, 0xca, 0xe1, 0x20, 0xbc, 0x3b, 0x51, 0xd0, 0x3c,
  0x86, 0x49, 0x62, 0xbc, 0x18, 0xc1, 0x3f, 0x3e, 0xdb, 0x3c, 0x8a, 0x3e,
  0x54, 0x83, 0xfd, 0x3d, 0x69, 0xdc, 0x06, 0xbe, 0x26, 0x16, 0x14, 0x3e,
  0x85, 0x94, 0x71, 0x3e, 0x19, 0x2d, 0xbb, 0xbc, 0x1f, 0xad, 0x1b, 0x3e,
  0xd8, 0xc1, 0x50, 0x3e, 0xfb, 0x8a, 0x48, 0xbe, 0x97, 0xf3, 0x80, 0xbd,
  0x2e, 0x26, 0x6a, 0x3d, 0x7b, 0xab, 0xa5, 0xbe, 0x33, 0xbf, 0x03, 0x38,
  0xcf, 0x65, 0x17, 0xbd, 0x13, 0xce, 0x04, 0xbe, 0x9f, 0x5c, 0x95, 0xbe,
  0xb0, 0x73, 0x8a, 0xbe, 0x8d, 0xc9, 0x12, 0x3d, 0x8e, 0x84, 0x64, 0x3e,
  0xda, 0xc2, 0x27, 0x3e, 0xc0, 0x3f, 0xac, 0x3e, 0xcd, 0x05, 0xd0, 0xbc,
  0x9b, 0xd4, 0x3f, 0x3e, 0x09, 0x0c, 0x11, 0x3e, 0xc0, 0x7e, 0x8c, 0xbd,
  0xad, 0x09, 0xd7, 0xbd, 0x13, 0xd5, 0xa7, 0xbd, 0xe0, 0x0b, 0xa1, 0xbe,
  0xca, 0x7b, 0x30, 0xbd, 0x91, 0x5d, 0x8c, 0xbe, 0x36, 0x87, 0xde, 0x3b,
  0xc9, 0xd2, 0xd5, 0xbe, 0xd2, 0x40, 0x69, 0x3e, 0xd1, 0xab, 0xdf, 0xbc,
  0x73, 0x9b, 0x31, 0xbc, 0xdc, 0x89, 0xe1, 0x3d, 0xb8, 0x76, 0x8a, 0x3e,
  0x84, 0x41, 0x23, 0xbe, 0x1f, 0x40, 0x20, 0xbc, 0x34, 0xd8, 0xbe, 0x3d,
  0x07, 0x17, 0xf6, 0xbe, 0xcb, 0xcc, 0x3a, 0x3c, 0xe4, 0x7b, 0x9a, 0x3b,
  0xe9, 0x07, 0x2b, 0xbe, 0x9b, 0x85, 0x90, 0xbd, 0xed, 0x11, 0x94, 0x3d,
  0xb5, 0x64, 0x98, 0xbc, 0xbb, 0x67, 0xa2, 0x3d, 0x30, 0xa1, 0x5c, 0x3e,
  0xb5, 0xd4, 0xde, 0xba, 0xe3, 0xa8, 0xbf, 0x3d, 0xb9, 0xe7, 0x82, 0x3e,
  0xa1, 0x0c, 0xd3, 0x3e, 0x63, 0xf6, 0x12, 0xbd, 0x8d, 0x2b, 0x4c, 0xbd,
  0x85, 0x9a, 0xf7, 0xbe, 0x84, 0x22, 0x12, 0x3d, 0x6c, 0xd8, 0x81, 0xbd,
  0x0a, 0x26, 0x5b, 0x3c, 0x09, 0x77, 0x2f, 0x3d, 0xc2, 0x47, 0xfb, 0x3f,
  0x2e, 0xba, 0x14, 0xbf, 0xa6, 0x75, 0x07, 0xbc, 0xd9, 0xf4, 0xb8, 0x3c,
  0x43, 0x60, 0xb3, 0x3d, 0x63, 0x71, 0x2a, 0x3c, 0xab, 0xa2, 0xb2, 0x3e,
  0xee, 0xf8, 0x1f, 0xbe, 0x96, 0xb6, 0x11, 0xbf, 0x2f, 0xc5, 0x25, 0xbe,
  0xe8, 0x7e, 0xa7, 0xbe, 0xbc, 0x19, 0xaf, 0xbe, 0x50, 0xae, 0xf0, 0xbd,
  0xee, 0x79, 0x3e, 0x3e, 0x85, 0x3f, 0xf6, 0x3d, 0x71, 0xd8, 0x36, 0x3e,
  0x1c, 0x3a, 0x05, 0x40, 0xe8, 0xe8, 0xb4, 0xbe, 0x88, 0x18, 0xa8, 0xbc,
  0x99, 0x3d, 0x3a, 0xbe, 0x35, 0x1f, 0x9f, 0xbe, 0x25, 0xab, 0x59, 0x3e,
  0xcb, 0x2a, 0xe0, 0xbd, 0x72, 0x2b, 0x11, 0x3b, 0xf2, 0x74, 0x2e, 0xbe,
  0x68, 0x1e, 0xe0, 0x3d, 0x7d, 0x70, 0x90, 0xbe, 0x85, 0xc0, 0x23, 0x3e,
  0x1b, 0x5e, 0xd5, 0x3d, 0x3a, 0xe2, 0x6d, 0x3d, 0xa6, 0x90, 0x9e, 0x3e,
  0x03, 0xf7, 0x45, 0x3e, 0xfa, 0x5a, 0xff, 0x3f, 0x57, 0x8b, 0xc6, 0xbe,
  0x2c, 0x49, 0x07, 0xbd, 0xed, 0x0a, 0xb4, 0xbe, 0x8f, 0xa8, 0x94, 0xbe,
  0xbb, 0x38, 0x60, 0x3e, 0x23, 0x64, 0x36, 0x3e, 0x7e, 0x7d, 0x9f, 0xbe,
  0xe2, 0x61, 0x1d, 0xbd, 0x12, 0x74, 0x52, 0xbe, 0x68, 0x41, 0x28, 0xbe,
  0x65, 0xfe, 0x7a, 0xbe, 0x5d, 0x38, 0x37, 0x3e, 0xe8, 0x7e, 0x7a, 0xbd,
  0x43, 0x2b, 0x37, 0x3d, 0xee, 0x09, 0xd0, 0x3e, 0x4a, 0x45, 0xf3, 0x3f,
  0xc5, 0x04, 0x4f, 0xbe, 0x2f, 0xdf, 0x19, 0x3d, 0x03, 0x2f, 0x8e, 0xbe,
  0x47, 0xe9, 0x43, 0xbe, 0x43, 0x31, 0xcc, 0x3d, 0x41, 0x11, 0x5f, 0x3e,
  0x5d, 0x5e, 0xca, 0xbd, 0x1c, 0x05, 0x30, 0xbe, 0xb0, 0xa4, 0x2d, 0xbe,
  0x50, 0x9c, 0xfc, 0xbd, 0x57, 0xe5, 0x5d, 0xbe, 0x44, 0x41, 0x83, 0x3d,
  0xd3, 0x0a, 0x72, 0xbe, 0x47, 0x16, 0x09, 0x3d, 0x37, 0x20, 0xc1, 0x3e,
  0xc0, 0xbe, 0xd4, 0x3f, 0xc7, 0x4c, 0xc1, 0xbe, 0x91, 0x8c, 0xa6, 0x3c,
  0x55, 0xa9, 0xc8, 0xbc, 0x6e, 0xbb, 0xc9, 0xba, 0xcd, 0xc5, 0xc5, 0x3d,
  0x58, 0x42, 0x42, 0x3e, 0xdb, 0x99, 0x11, 0xbe, 0xe8, 0xf1, 0x2f, 0xbe,
  0x74, 0xa3, 0xaf, 0xbe, 0x51, 0x28, 0x42, 0xbe, 0x37, 0x3f, 0x88, 0xbe,
  0xc3, 0x9c, 0x66, 0xbe, 0x9e, 0x7b, 0x27, 0xbd, 0x2c, 0x5a, 0xaa, 0x3d,
  0x77, 0xec, 0x07, 0x3c, 0x77, 0xf2, 0xc0, 0x3f, 0x70, 0xdc, 0xa7, 0xbe,
  0x56, 0x50, 0x39, 0xbd, 0xc5, 0xca, 0xb5, 0x3b, 0x87, 0xab, 0xa2, 0xbe,
  0x4b, 0x43, 0xc1, 0x3d, 0xd5, 0x8f, 0xa6, 0x3e, 0xee, 0x0a, 0x28, 0xbd,
  0xc4, 0x4d, 0x2e, 0xbe, 0x20, 0x04, 0x6e, 0xbe, 0xf2, 0xc6, 0x88, 0xbe,
  0xfe, 0x96, 0xa4, 0xbd, 0x63, 0xbb, 0xa1, 0xbc, 0x28, 0x12, 0xc3, 0xbd,
  0x04, 0x4e, 0xc8, 0x3a, 0xa0, 0x78, 0xa8, 0x3c, 0x10, 0x41, 0x6d, 0xbe,
  0x38, 0xe2, 0x52, 0xbe, 0x80, 0xc3, 0x4c, 0xbd, 0xfc, 0xa1, 0xd5, 0x3a,
  0xc4, 0x8d, 0xa7, 0xbe, 0xd0, 0xc3, 0xb2, 0x3d, 0x4e, 0x6d, 0x5d, 0x3d,
  0x67, 0x21, 0x03, 0xbe, 0x25, 0x4d, 0x72, 0xbe, 0xd0, 0xf2, 0xb4, 0xbe,
  0xbd, 0xba, 0xb3, 0xbd, 0xec, 0x4b, 0x0f, 0xbe, 0x5d, 0xf9, 0x1e, 0xbe,
  0x4b, 0x63, 0x9d, 0xbc, 0x78, 0x14, 0x83, 0x3c, 0xd7, 0x51, 0x23, 0x3d,
  0x6a, 0x6c, 0x3b, 0xbe, 0x85, 0xe0, 0x66, 0xbb, 0xf7, 0x7c, 0x47, 0xbe,
  0x27, 0x6c, 0x55, 0xbe, 0x98, 0x76, 0xa3, 0xbd, 0x06, 0x83, 0xef, 0xbd,
  0xed, 0xa4, 0xe2, 0xbd, 0xac, 0xc7, 0x73, 0xbe, 0x29, 0x8d, 0x63, 0xbe,
  0xa3, 0x03, 0xc3, 0xbb, 0x38, 0xbc, 0x3e, 0xbe, 0xab, 0xed, 0xcb, 0xbc,
  0x67, 0xf5, 0xa2, 0xbd, 0xf4, 0x22, 0xd1, 0xbd, 0x61, 0x74, 0xb4, 0x3d,
  0x66, 0x6e, 0xcf, 0xbd, 0x2e, 0x59, 0x38, 0x3e, 0x06, 0xc6, 0x2e, 0xbe,
  0x1c, 0x21, 0x08, 0xbe, 0x9f, 0x52, 0xa0, 0xbc, 0x18, 0x3a, 0x9c, 0xbd,
  0x8b, 0x8b, 0xd3, 0xbb, 0x75, 0xc2, 0x59, 0xbe, 0xe4, 0x96, 0x1d, 0xbe,
  0xdc, 0xac, 0x8f, 0x3d, 0xa1, 0x8d, 0x98, 0xbd, 0xc4, 0xdf, 0x7b, 0xbe,
  0x59, 0xd9, 0x5c, 0xbe, 0x4f, 0x5a, 0x77, 0xbe, 0x03, 0x2d, 0x00, 0x3e,
  0xec, 0xb7, 0xc9, 0xbd, 0xfc, 0xfa, 0x96, 0x3d, 0x85, 0xb8, 0xc5, 0x3d,
  0x87, 0xbd, 0x26, 0xbd, 0xe2, 0x20, 0x35, 0xbe, 0x85, 0x77, 0xc5, 0xbd,
  0x89, 0xbb, 0x15, 0xbe, 0xd4, 0x32, 0xff, 0xbd, 0x64, 0x3a, 0x60, 0x3b,
  0xc0, 0x6b, 0x66, 0xbe, 0xae, 0xd5, 0x44, 0x3e, 0xd6, 0x53, 0xa2, 0xbd,
  0x85, 0xc3, 0xc6, 0x3c, 0xed, 0xfb, 0x4e, 0xbe, 0xc1, 0xb6, 0x14, 0xbe,
  0xe5, 0xe9, 0x3a, 0x3d, 0x95, 0x70, 0x3a, 0xbe, 0x47, 0x45, 0x33, 0xbe,
  0x35, 0xd8, 0xe3, 0xbc, 0x2c, 0x58, 0xb2, 0x3d, 0x5e, 0x76, 0xc6, 0xbd,
  0x6e, 0x39, 0x79, 0xbe, 0x2b, 0xfe, 0x87, 0xbb, 0x21, 0x62, 0x84, 0xbe,
  0xdd, 0x93, 0x88, 0xbb, 0x05, 0xb8, 0xd9, 0x3d, 0x25, 0xb9, 0xd3, 0x3c,
  0x3f, 0x1b, 0x07, 0xbc, 0x88, 0xd7, 0x40, 0xbe, 0xb0, 0x93, 0x63, 0xbd,
  0x89, 0xdd, 0xee, 0xbd, 0x7a, 0x4a, 0x94, 0xbd, 0xc3, 0x9f, 0x99, 0x3d,
  0x12, 0xc8, 0xd1, 0xbd, 0x07, 0x91, 0x44, 0x3c, 0x0f, 0xd8, 0xf1, 0xbd,
  0x49, 0xac, 0x8f, 0xbe, 0x13, 0xd2, 0xe8, 0x3c, 0x4a, 0xb2, 0x67, 0xbe,
  0x3b, 0xf2, 0xb1, 0xbd, 0xfb, 0xf6, 0x71, 0xbe, 0xf0, 0x84, 0xc5, 0xbd,
  0xfe, 0x30, 0xaa, 0x3d, 0xad, 0xcf, 0x1a, 0xbe, 0xe3, 0xf0, 0x43, 0xbe,
  0x15, 0x52, 0x2c, 0x3d, 0x13, 0x43, 0xe3, 0xbd, 0xb3, 0xeb, 0x30, 0x3d,
  0x5c, 0xf0, 0x14, 0x3d, 0x52, 0xc1, 0x07, 0xbe, 0xad, 0x06, 0xb3, 0xbd,
  0xf8, 0xc5, 0x9f, 0xbd, 0x20, 0x80, 0xaa, 0xbe, 0xf8, 0x04, 0x34, 0xbe,
  0x08, 0x18, 0xca, 0xbd, 0x0b, 0x59, 0x41, 0x3b, 0x0b, 0x01, 0x7e, 0xbe,
  0x22, 0x41, 0x6e, 0xbe, 0x2c, 0xe4, 0x88, 0x3e, 0xc9, 0x62, 0x9d, 0x3c,
  0x9c, 0x33, 0x6b, 0xbe, 0x28, 0x20, 0xc2, 0x3d, 0xa6, 0x42, 0xa0, 0xbe,
  0x9d, 0xa1, 0x58, 0x3d, 0xd9, 0x59, 0x64, 0xbe, 0x06, 0xff, 0x9a, 0xbd,
  0x24, 0x9e, 0x46, 0xbe, 0xc9, 0x90, 0x63, 0xbe, 0x65, 0x44, 0x07, 0xbe,
  0xc2, 0x12, 0x10, 0x3c, 0x30, 0x18, 0x29, 0xbe, 0x6c, 0x44, 0xa2, 0xbd,
  0xb2, 0x42, 0x88, 0xba, 0x1e, 0x5a, 0x0a, 0xbe, 0x43, 0xbd, 0xcd, 0xbd,
  0xf2, 0xc2, 0xff, 0xbd, 0x1e, 0xbb, 0x45, 0xbe, 0xf5, 0x2d, 0x62, 0xbe,
  0x17, 0x9e, 0x76, 0xbe, 0xe3, 0x12, 0xa8, 0xbc, 0x35, 0xfe, 0x2e, 0x3d,
  0x0a, 0x99, 0x75, 0xbe, 0x80, 0x6d, 0x1e, 0xbd, 0xc3, 0x1b, 0x38, 0x3e,
  0x61, 0x34, 0x73, 0xbd, 0xd9, 0x73, 0x90, 0x3d, 0x2d, 0x0f, 0x50, 0x3e,
  0x55, 0x87, 0x41, 0xbd, 0x26, 0xd9, 0x46, 0xbe, 0xe4, 0xfa, 0xc5, 0x3b,
  0x32, 0x23, 0x39, 0xbe, 0xca, 0x6d, 0xbe, 0x3c, 0xe5, 0x49, 0x80, 0xbd,
  0x71, 0x7c, 0x3f, 0xbd, 0x55, 0xaf, 0x5b, 0x3d, 0x37, 0xe6, 0xbb, 0xbd,
  0xf1, 0xdc, 0x83, 0xbc, 0x23, 0xa0, 0xb2, 0xbd, 0x0d, 0xb7, 0xa8, 0xbd,
  0x23, 0xb3, 0x44, 0x3e, 0xfb, 0x9a, 0xd9, 0xbe, 0xa0, 0x87, 0x20, 0x3d,
  0xd7, 0xc3, 0x85, 0xbe, 0x41, 0x79, 0xf0, 0xbd, 0xb5, 0x7d, 0x1d, 0xbe,
  0x08, 0xc4, 0x56, 0xbe, 0x61, 0x60, 0xf6, 0x3d, 0x55, 0xa3, 0x63, 0x3d,
  0x9b, 0xc5, 0x71, 0xbc, 0x06, 0x18, 0xa9, 0x3d, 0xcd, 0xa2, 0xd3, 0x3d,
  0x95, 0xef, 0x4c, 0xbe, 0xf0, 0xfd, 0x08, 0x3e, 0x9c, 0xb4, 0x1e, 0xbd,
  0x22, 0x4d, 0x82, 0x3d, 0x3f, 0xeb, 0xb0, 0x3d, 0x90, 0x1f, 0xa2, 0xbe,
  0x77, 0x07, 0x8c, 0x3e, 0x24, 0x68, 0x46, 0xbe, 0x33, 0xa2, 0x94, 0xbd,
  0xe9, 0x49, 0x8c, 0xbe, 0xfa, 0x4d, 0x3b, 0x3c, 0xb7, 0xb0, 0x3f, 0x3e,
  0x67, 0x7d, 0x7f, 0x3e, 0x5c, 0xb3, 0x31, 0xbc, 0x55, 0x78, 0xbb, 0xbc,
  0x58, 0xe2, 0x53, 0x3d, 0xeb, 0xd7, 0x41, 0x3d, 0x3d, 0x45, 0xfb, 0x3d,
  0x1a, 0x76, 0xd2, 0x3c, 0xa0, 0xa0, 0x02, 0x3e, 0x0e, 0xd1, 0x9f, 0x3e,
  0x81, 0xd0, 0xac, 0xbe, 0x3b, 0xdf, 0xc4, 0x3c, 0x70, 0x64, 0x6a, 0xbc,
  0xd1, 0x19, 0x93, 0xbd, 0x26, 0xcc, 0x6e, 0xbe, 0xf0, 0x85, 0xeb, 0xbd,
  0xf3, 0x02, 0xc5, 0xbd, 0x7e, 0x48, 0x47, 0x3d, 0x46, 0x37, 0x2e, 0xbe,
  0xd2, 0x18, 0x81, 0x3d, 0xc3, 0x6c, 0x0f, 0xbe, 0x33, 0x12, 0xc4, 0xbd,
  0x15, 0xb4, 0xa9, 0x3d, 0x9a, 0x11, 0x82, 0xbd, 0x7a, 0x7d, 0xec, 0x3d,
  0xd4, 0x1e, 0xc0, 0x3e, 0xb7, 0xa6, 0x29, 0xbe, 0xd1, 0xf0, 0x0d, 0x3e,
  0xbb, 0xe3, 0x68, 0xbe, 0xb8, 0x97, 0x75, 0xbd, 0x98, 0xf7, 0x80, 0xbe,
  0xa5, 0x6d, 0xa8, 0xbe, 0x4c, 0xce, 0x44, 0xbc, 0x8e, 0x4b, 0x14, 0x3e,
  0x7c, 0xb6, 0x1f, 0xbe, 0x70, 0x9b, 0x96, 0xbe, 0x4e, 0x1b, 0x8b, 0x3d,
  0x1b, 0xf4, 0x1a, 0xbc, 0xff, 0xa8, 0xc4, 0xbd, 0xde, 0x94, 0x48, 0xbe,
  0x32, 0xc9, 0x18, 0x3d, 0x75, 0x11, 0x96, 0x3e, 0x04, 0xfd, 0x2f, 0xbe,
  0x41, 0xe1, 0x8e, 0x3e, 0x2a, 0x19, 0x4b, 0xba, 0x9f, 0xaf, 0xdb, 0x3c,
  0xa3, 0x1a, 0x38, 0xbe, 0x15, 0x29, 0x4d, 0xbc, 0xfd, 0xd5, 0x69, 0xbd,
  0x11, 0x59, 0xc6, 0xbd, 0xdf, 0xaa, 0x90, 0xbe, 0xc1, 0xe1, 0x10, 0xbe,
  0xd7, 0x56, 0x51, 0xbe, 0xdf, 0xd0, 0x3a, 0x3e, 0xc6, 0xce, 0x9e, 0xbe,
  0xde, 0x81, 0x93, 0xbe, 0x9b, 0x70, 0xc6, 0xbd, 0x6c, 0x91, 0x4c, 0x3e,
  0xae, 0xe1, 0xc7, 0xbe, 0x53, 0x01, 0x86, 0x3e, 0x65, 0xe7, 0x34, 0xbe,
  0xa2, 0x3b, 0x12, 0xbe, 0x84, 0x3e, 0x27, 0xbe, 0x11, 0x93, 0x38, 0xbd,
  0xc6, 0x63, 0xe9, 0x3d, 0x2c, 0xa6, 0x64, 0x3e, 0xf0, 0x8d, 0x31, 0xbd,
  0x5d, 0x20, 0x3f, 0xbe, 0x2c, 0x45, 0xcb, 0x3d, 0x31, 0xf2, 0x1e, 0x3d,
  0xb5, 0xcc, 0x96, 0xbd, 0x2e, 0x8d, 0x8b, 0xbd, 0xa1, 0x18, 0xff, 0xbe,
  0xea, 0x30, 0x24, 0x3e, 0x3a, 0x20, 0x84, 0x3a, 0xec, 0x9d, 0xa4, 0xbd,
  0x14, 0xe7, 0x4b, 0x3e, 0xa4, 0xcf, 0x43, 0xbe, 0x6b, 0x43, 0x94, 0xbe,
  0x27, 0xe7, 0xb8, 0xbe, 0x68, 0x08, 0x2c, 0xbe, 0x04, 0x86, 0x9e, 0x3d,
  0x3e, 0xd2, 0x30, 0xbe, 0xb5, 0xfd, 0x14, 0x3d, 0x9d, 0x16, 0xe5, 0xbc,
  0xe1, 0xc3, 0x61, 0x3d, 0xed, 0xfc, 0x03, 0xbe, 0xf0, 0x8c, 0xe0, 0xbe,
  0x53, 0x05, 0xd3, 0xbd, 0xe0, 0x10, 0x91, 0x3e, 0x6b, 0xe6, 0xae, 0x3c,
  0x36, 0xa2, 0x9b, 0x3e, 0x90, 0x60, 0x4c, 0x3d, 0x7a, 0x16, 0x84, 0xbe,
  0xcd, 0x39, 0x20, 0x3d, 0xf4, 0x90, 0x27, 0x3e, 0xf4, 0x50, 0xe2, 0x3d,
  0x3a, 0xab, 0x20, 0x3e, 0xcf, 0x2c, 0x5e, 0xbe, 0x24, 0xcf, 0x0e, 0xbd,
  0x08, 0x64, 0xb3, 0xbc, 0xeb, 0xa4, 0xb1, 0xbc, 0xaa, 0x70, 0x04, 0xbe,
  0x82, 0xfc, 0x11, 0xbe, 0xd0, 0x19, 0xc6, 0xbc, 0xe1, 0x5f, 0xe5, 0x3d,
  0x2a, 0xb3, 0x88, 0x3d, 0x67, 0xd9, 0x81, 0x3e, 0xa6, 0xad, 0x6f, 0x3d,
  0x4c, 0x3b, 0x14, 0xbe, 0x36, 0x27, 0x16, 0x3d, 0xc7, 0x11, 0xc1, 0x3d,
  0x37, 0x57, 0x11, 0x3e, 0xb2, 0xb8, 0x4e, 0xbd, 0x31, 0x5e, 0xe4, 0x3c,
  0xed, 0xac, 0x0f, 0x3c, 0x8b, 0x97, 0x51, 0x3d, 0x32, 0x86, 0xd5, 0xbd,
  0xa1, 0xf0, 0x7c, 0xbd, 0xc3, 0x52, 0xc8, 0x3a, 0xc5, 0x56, 0xb3, 0xbd,
  0x6a, 0x56, 0x7a, 0x3d, 0xf0, 0xf8, 0x26, 0x3d, 0x50, 0x97, 0x95, 0x3e,
  0x97, 0xf2, 0xc7, 0x3d, 0x80, 0xa3, 0xaf, 0xbe, 0x93, 0xbe, 0xd8, 0xbd,
  0x6c, 0xc5, 0x72, 0x3d, 0x4d, 0x55, 0x94, 0x3d, 0x9d, 0x62, 0xa5, 0x3d,
  0xfa, 0xe0, 0x1e, 0xbd, 0xbb, 0x3d, 0x96, 0xbb, 0x82, 0xd3, 0x43, 0x3d,
  0x6a, 0x44, 0x32, 0xbd, 0xd0, 0x45, 0x70, 0xbd, 0x30, 0xd6, 0x86, 0x3d,
  0xf8, 0x35, 0x10, 0x3e, 0xf6, 0xa9, 0x12, 0x3e, 0x65, 0x4a, 0xae, 0x3c,
  0x55, 0x63, 0x04, 0x3e, 0x8a, 0xf6, 0x2e, 0x3d, 0x7d, 0x23, 0xb2, 0xbe,
  0xa5, 0x77, 0x72, 0xbe, 0xec, 0xbd, 0xd8, 0xbd, 0x4f, 0x9b, 0x47, 0x3e,
  0x10, 0x0b, 0x05, 0x3e, 0x90, 0xb0, 0xa2, 0x3d, 0xcc, 0x93, 0x9f, 0x3d,
  0xc5, 0xba, 0xf8, 0x3d, 0xf7, 0xc6, 0xfb, 0xbd, 0x5d, 0x22, 0x7e, 0xbe,
  0x7d, 0xa6, 0xc1, 0xbd, 0xd1, 0x3a, 0x85, 0xbe, 0xd0, 0xde, 0xe9, 0x3d,
  0xf0, 0xca, 0x78, 0x3c, 0xb5, 0x64, 0x5a, 0x3e, 0xde, 0x12, 0xce, 0x3b,
  0x9f, 0xe7, 0xc6, 0xbe, 0x36, 0x63, 0x38, 0xbe, 0x3b, 0x08, 0xef, 0xbd,
  0x13, 0xc6, 0x9c, 0xbd, 0xb2, 0x13, 0xbe, 0x3d, 0xdc, 0xf5, 0x1c, 0x3e,
  0x1e, 0x73, 0xa4, 0x3d, 0xd2, 0x4f, 0x1b, 0x3d, 0xee, 0x7a, 0x3b, 0x3d,
  0x19, 0x3d, 0x1a, 0x3c, 0x00, 0xd1, 0x16, 0x3d, 0xdf, 0xc7, 0xa2, 0x3e,
  0xcf, 0x4d, 0x74, 0xba, 0x3c, 0x27, 0x06, 0x3d, 0x1c, 0x12, 0x70, 0xbe,
  0xcc, 0x5b, 0xc4, 0x3d, 0xe8, 0xe2, 0xae, 0xbd, 0x14, 0x01, 0x75, 0xbd,
  0xc0, 0x60, 0x1a, 0x3d, 0x99, 0x78, 0x0e, 0x3c, 0x48, 0x2a, 0x9a, 0xbd,
  0x12, 0x0d, 0x8d, 0x3d, 0x28, 0x12, 0x6a, 0x3d, 0x64, 0xc6, 0x20, 0x3c,
  0x22, 0xb7, 0x88, 0xbd, 0x6b, 0xa1, 0x47, 0x3e, 0xf0, 0xc1, 0x1c, 0x3e,
  0xa2, 0x28, 0x3b, 0x3e, 0xca, 0x55, 0x9b, 0xbd, 0xc4, 0xab, 0x23, 0x3d,
  0x5d, 0x4e, 0xc9, 0x3b, 0x78, 0xa6, 0xd0, 0xbd, 0xcd, 0x71, 0x82, 0x3d,
  0xea, 0x26, 0x18, 0x3d, 0x22, 0xeb, 0xed, 0x3c, 0xbb, 0x34, 0xa2, 0x3b,
  0x2d, 0x13, 0x1e, 0x3e, 0x23, 0x87, 0x15, 0x3e, 0xfc, 0x9d, 0xf4, 0x3d,
  0x0e, 0x0a, 0xec, 0x3c, 0x8d, 0xa7, 0x71, 0xbe, 0x92, 0x98, 0xdd, 0x3c,
  0x3a, 0x2e, 0xd8, 0x3d, 0x65, 0xa4, 0x43, 0xbe, 0x58, 0x49, 0x30, 0xbe,
  0x54, 0x3f, 0xe9, 0xbc, 0x4f, 0xe1, 0xda, 0xbd, 0xdc, 0x68, 0x8b, 0xbd,
  0xb7, 0x8b, 0xf9, 0x3b, 0x6e, 0x5e, 0xf4, 0xbd, 0x6d, 0x52, 0xef, 0xbd,
  0x1a, 0xf8, 0xcf, 0x3e, 0x6b, 0xbf, 0xa4, 0x3d, 0x7f, 0x8e, 0x91, 0xbd,
  0x1e, 0xee, 0x0e, 0xbd, 0xdd, 0xc0, 0xeb, 0xbc, 0x55, 0xc4, 0x96, 0xbc,
  0x4c, 0x52, 0x33, 0xbd, 0x96, 0xe1, 0x98, 0x3d, 0x7d, 0x6b, 0x8c, 0xbd,
  0x21, 0x62, 0x8b, 0xbe, 0xe6, 0xd4, 0x78, 0xbc, 0xf4, 0x5a, 0x58, 0xbe,
  0xa4, 0xe6, 0xea, 0xba, 0xfd, 0x13, 0xcd, 0xbb, 0x27, 0xa8, 0x66, 0x3d,
  0xe9, 0x7e, 0x77, 0xbd, 0x6c, 0xa4, 0xee, 0x3d, 0xd9, 0x92, 0x2a, 0xbe,
  0x91, 0xb4, 0xc8, 0xbd, 0x35, 0x17, 0xcd, 0x3b, 0xe2, 0x8e, 0x8c, 0x3c,
  0xa7, 0x5b, 0x9b, 0x3c, 0x56, 0xe4, 0x6d, 0x3c, 0x3b, 0x9f, 0xae, 0x3d,
  0xb6, 0x30, 0x9d, 0xbd, 0x93, 0x45, 0x65, 0xbe, 0x44, 0x59, 0x11, 0xbd,
  0xcb, 0x41, 0x24, 0xbe, 0x91, 0x7b, 0x3e, 0x3b, 0x80, 0x17, 0x16, 0x3d,
  0x5f, 0xfa, 0x9b, 0x3d, 0x9b, 0x41, 0x87, 0xbd, 0x60, 0xa4, 0xba, 0x3d,
  0xe3, 0x69, 0x66, 0xbe, 0x9b, 0xf4, 0xe0, 0xbd, 0x0f, 0x8d, 0x87, 0x3d,
  0xba, 0x93, 0x43, 0xbd, 0x4b, 0x5c, 0x0a, 0x3e, 0xea, 0xc3, 0x55, 0x3c,
  0xbb, 0xe5, 0xb8, 0x3d, 0x8e, 0xd8, 0x79, 0xbc, 0x1f, 0x0a, 0xa0, 0xbe,
  0xe4, 0xe1, 0x1e, 0xbd, 0x3c, 0x2f, 0xee, 0xbd, 0x64, 0x20, 0x8b, 0xbd,
  0xe9, 0x1e, 0x3a, 0x3c, 0x5f, 0x95, 0x27, 0x3d, 0x68, 0x30, 0x2f, 0xbd,
  0x3e, 0x96, 0x83, 0xbb, 0x94, 0x51, 0x7a, 0x3e, 0x2d, 0xc5, 0x07, 0xbd,
  0x49, 0x92, 0xbc, 0x3d, 0x51, 0x41, 0x16, 0xbd, 0x84, 0x9f, 0x65, 0x3e,
  0x5a, 0x8c, 0x5e, 0x3d, 0x54, 0xb5, 0x01, 0x3e, 0x07, 0xe9, 0x76, 0xbe,
  0x1c, 0x97, 0x0d, 0xbe, 0xd6, 0x8c, 0x84, 0x3b, 0xb2, 0xe2, 0xcc, 0xbd,
  0xc8, 0x77, 0x40, 0xbc, 0x28, 0x2b, 0xb6, 0x3d, 0x29, 0xf4, 0x97, 0x3d,
  0x89, 0x3a, 0x90, 0xbd, 0x1a, 0x52, 0x80, 0x3d, 0x04, 0x24, 0x60, 0x3e,
  0x8d, 0xc9, 0xc5, 0x3c, 0x35, 0x0c, 0x8e, 0x3d, 0xec, 0x14, 0x86, 0x3b,
  0x59, 0xea, 0x08, 0x3e, 0x96, 0x73, 0xe7, 0xbc, 0x17, 0x93, 0xaf, 0x39,
  0xde, 0xd2, 0x51, 0xbe, 0xe5, 0xe1, 0xd3, 0x3c, 0xdf, 0xdf, 0xd6, 0xbc,
  0x86, 0xeb, 0xe3, 0x3d, 0xf4, 0x57, 0x6e, 0x3b, 0xe0, 0xd6, 0x28, 0x3d,
  0xbb, 0x97, 0x40, 0x3d, 0x88, 0xb4, 0xa2, 0x3d, 0xc3, 0xaf, 0xf5, 0x3d,
  0x41, 0xd8, 0x36, 0x3a, 0x02, 0x4a, 0x4b, 0x3a, 0x82, 0x0a, 0xd3, 0xbd,
  0x92, 0x8a, 0x4c, 0x3e, 0xcc, 0x49, 0x1a, 0xbe, 0xf9, 0x7a, 0x98, 0x3d,
  0x36, 0x76, 0x5d, 0xbb, 0x91, 0x39, 0xda, 0xbd, 0x18, 0x61, 0x54, 0x3e,
  0xd7, 0xef, 0x85, 0x3e, 0x26, 0x1d, 0xe8, 0xbd, 0x43, 0xc6, 0x26, 0x3e,
  0x8c, 0x36, 0x05, 0xbc, 0x02, 0xf8, 0x97, 0xbe, 0xc9, 0xf9, 0x3c, 0xbf,
  0x48, 0xad, 0x3d, 0x3e, 0x41, 0x60, 0x2a, 0x3e, 0x31, 0x0d, 0x65, 0x3e,
  0x4a, 0xbe, 0x41, 0x3e, 0xd2, 0x44, 0x00, 0xbc, 0x51, 0x61, 0x70, 0xbe,
  0x2f, 0x55, 0x19, 0xbc, 0x41, 0x5b, 0xab, 0xbd, 0x7f, 0xd0, 0x5c, 0x3d,
  0x48, 0x8c, 0xa7, 0xbd, 0xe6, 0x85, 0xd7, 0xbd, 0x32, 0xfb, 0x78, 0x3e,
  0x5a, 0x9d, 0x58, 0xbe, 0xbd, 0xe4, 0x81, 0x3d, 0x4b, 0xd6, 0xb8, 0xbd,
  0x49, 0x77, 0x0c, 0xbe, 0xd9, 0x59, 0xf6, 0x3e, 0x5e, 0x03, 0xd7, 0xbc,
  0x61, 0x32, 0x1a, 0xbe, 0x45, 0xce, 0x3d, 0x3d, 0x98, 0xeb, 0x1e, 0x3c,
  0x19, 0x55, 0x01, 0xbe, 0x7e, 0xcb, 0x12, 0xbf, 0x6c, 0xa3, 0xc8, 0xbe,
  0x17, 0x2b, 0x70, 0xbe, 0x81, 0x92, 0x86, 0xbe, 0xa6, 0x4d, 0x10, 0xbe,
  0x99, 0x9c, 0x80, 0xbe, 0x32, 0xb5, 0x23, 0xbd, 0x11, 0x85, 0x09, 0xbf,
  0x62, 0x52, 0xb1, 0xbe, 0xf4, 0x0c, 0xa3, 0x3e, 0x25, 0xde, 0xf6, 0xbd,
  0x6e, 0x89, 0x2d, 0xbe, 0x43, 0x37, 0xdf, 0xbe, 0x12, 0x69, 0xd8, 0xbe,
  0xff, 0xf5, 0x28, 0xbc, 0xa3, 0x57, 0xb2, 0x3d, 0x77, 0x6c, 0x55, 0xbf,
  0xf9, 0xdf, 0x07, 0xbf, 0x83, 0x79, 0x1a, 0xbe, 0x1f, 0xb9, 0x34, 0xbe,
  0xcd, 0xed, 0x9a, 0xbd, 0x02, 0x6c, 0x4b, 0xbe, 0xc0, 0xf4, 0xf6, 0xbc,
  0x04, 0x78, 0xaf, 0xbe, 0x66, 0x18, 0x10, 0xbe, 0xa2, 0x7c, 0x4e, 0xbe,
  0x5b, 0x92, 0xd7, 0x3d, 0xc3, 0x91, 0x27, 0xbe, 0x75, 0xa8, 0x5a, 0xbe,
  0x26, 0x33, 0x64, 0xbd, 0x16, 0x9d, 0xc2, 0x3c, 0x16, 0xc0, 0xff, 0x3d,
  0xec, 0x52, 0xda, 0xbc, 0xb0, 0x67, 0xac, 0xbe, 0xb3, 0x7b, 0xcf, 0xbd,
  0x14, 0xb4, 0x79, 0xbb, 0x9f, 0x0d, 0xb6, 0xbd, 0x3b, 0xbd, 0x05, 0xbe,
  0x69, 0x59, 0x65, 0x3e, 0x30, 0x12, 0x7d, 0xbd, 0x70, 0xd4, 0x6a, 0xbe,
  0xa5, 0x87, 0x8a, 0xbe, 0x2a, 0xb7, 0x8d, 0xbd, 0x3e, 0x55, 0xae, 0x3e,
  0x0c, 0x7c, 0x81, 0x3d, 0x89, 0x69, 0x4a, 0x3d, 0xb4, 0x0d, 0xa6, 0x3d,
  0xf4, 0x18, 0x73, 0x3d, 0xcd, 0x5d, 0x90, 0x3c, 0x09, 0xb0, 0xa8, 0x3d,
  0xa4, 0xe9, 0xd5, 0x3d, 0xde, 0xff, 0x9a, 0x3e, 0x98, 0x4e, 0xda, 0xbd,
  0x04, 0xda, 0x56, 0x3b, 0x36, 0x16, 0x89, 0xbe, 0x56, 0x1b, 0xdb, 0x3c,
  0x1f, 0xea, 0x9b, 0xbe, 0x14, 0xfe, 0xb0, 0xbe, 0x04, 0x57, 0xbc, 0x3d,
  0xba, 0x66, 0x93, 0x3e, 0x5e, 0xe0, 0x8d, 0x3e, 0x89, 0x00, 0x9c, 0x3d,
  0x0a, 0x0b, 0xcf, 0x3c, 0x54, 0x38, 0xa0, 0x3e, 0x37, 0x8a, 0x57, 0x3c,
  0x5d, 0xda, 0xea, 0x3c, 0xab, 0x42, 0xd5, 0xbe, 0x77, 0x4f, 0xef, 0x3c,
  0xf3, 0xb5, 0x90, 0x3c, 0x11, 0xb3, 0xea, 0x3c, 0x57, 0xd0, 0xdc, 0xbe,
  0x9f, 0x08, 0x42, 0x3d, 0x55, 0xbb, 0x95, 0xbe, 0x22, 0x2c, 0x03, 0xbe,
  0xa7, 0x3c, 0xe4, 0x3d, 0x2e, 0x44, 0xfd, 0x3d, 0x23, 0x6e, 0x9b, 0x3d,
  0x49, 0xe8, 0x0f, 0xbe, 0x1d, 0x9a, 0x30, 0xbe, 0x11, 0xdd, 0x96, 0x3d,
  0xac, 0x42, 0x1c, 0xbe, 0xa0, 0x00, 0xc3, 0xbd, 0x42, 0x50, 0x59, 0xbd,
  0xc5, 0xad, 0x54, 0x3d, 0x9a, 0x2a, 0x46, 0x3d, 0xd0, 0x09, 0x23, 0x3d,
  0x73, 0xa1, 0xc4, 0x3d, 0x36, 0xd5, 0x31, 0xbe, 0xff, 0xae, 0x21, 0xbe,
  0xfa, 0x43, 0x26, 0xbe, 0x93, 0x05, 0x6b, 0xbe, 0x84, 0x85, 0x6e, 0xbd,
  0x17, 0x64, 0x9e, 0x3d, 0x9e, 0xd5, 0xe9, 0x3d, 0x9a, 0x73, 0x1e, 0xbe,
  0xce, 0x89, 0x11, 0xbe, 0x1d, 0x96, 0x88, 0xbc, 0x5f, 0x1c, 0x2d, 0xbe,
  0xb7, 0x4b, 0x0d, 0x3e, 0xa2, 0x22, 0x44, 0xbe, 0x66, 0xb2, 0x9b, 0xbe,
  0xdc, 0x51, 0x8b, 0xbe, 0xfe, 0x0b, 0x00, 0xbe, 0x70, 0xbe, 0xb5, 0xbd,
  0x1f, 0x4c, 0x15, 0xbe, 0x82, 0xa0, 0x52, 0xbe, 0xfa, 0xfc, 0x2a, 0x3e,
  0x33, 0x63, 0xe5, 0xbb, 0x8b, 0x10, 0x19, 0x3e, 0x7a, 0xe5, 0x8f, 0x3d,
  0x8f, 0x4b, 0x3b, 0xbc, 0x8c, 0x9c, 0xe2, 0x3d, 0x26, 0x90, 0xfb, 0x3c,
  0x44, 0x5a, 0x98, 0x3d, 0x6b, 0xbb, 0x3f, 0x3d, 0xf4, 0xfa, 0xe7, 0x3d,
  0x30, 0x23, 0xcf, 0xbe, 0x23, 0xe4, 0xe5, 0xbd, 0x0e, 0xfb, 0x7e, 0xbe,
  0xa0, 0x23, 0xa8, 0xbd, 0xc1, 0x44, 0x34, 0x3d, 0x54, 0x77, 0x21, 0xbe,
  0xda, 0xce, 0x1c, 0xbe, 0xb8, 0xdf, 0xa3, 0x3d, 0x35, 0x7d, 0x4c, 0xbe,
  0x48, 0x44, 0x8e, 0xbd, 0xcf, 0x30, 0x4d, 0xbd, 0x3e, 0xef, 0xb1, 0xbd,
  0xaa, 0x74, 0xe5, 0x3d, 0x83, 0xcd, 0x6e, 0xbe, 0xb9, 0x18, 0x0d, 0x3c,
  0x58, 0xdb, 0x1e, 0x3c, 0x06, 0x4b, 0xa2, 0xbd, 0x28, 0x25, 0xaf, 0xbd,
  0xf6, 0x11, 0x47, 0x3d, 0xd2, 0xe4, 0x0e, 0x3d, 0xe7, 0x14, 0x97, 0xbe,
  0xd0, 0xf4, 0x23, 0xbe, 0x00, 0x08, 0xa0, 0xbc, 0xa2, 0x0c, 0xf3, 0xbd,
  0xab, 0x12, 0x6d, 0xbe, 0x9d, 0xda, 0xaf, 0xbb, 0x51, 0x96, 0xdf, 0xbd,
  0xc5, 0xc9, 0xff, 0x3c, 0xda, 0x63, 0x37, 0xbb, 0xd3, 0xfc, 0x10, 0xbe,
  0xbe, 0xba, 0x5b, 0x3d, 0x0b, 0x3e, 0x2e, 0xbe, 0x9a, 0x33, 0x9d, 0xbe,
  0x78, 0xf1, 0xe7, 0xbd, 0x86, 0x21, 0x78, 0xbe, 0x0c, 0x8a, 0x37, 0xbe,
  0x10, 0xee, 0x4d, 0x3d, 0x63, 0x88, 0x3d, 0xbe, 0x28, 0xca, 0xfe, 0xbd,
  0xd2, 0xa4, 0x3d, 0x3e, 0x62, 0x25, 0x58, 0xbd, 0x14, 0x9c, 0x3a, 0xbe,
  0x02, 0xc9, 0x97, 0x3e, 0xf7, 0xf7, 0xd1, 0x3d, 0xdb, 0x87, 0xff, 0x3c,
  0x42, 0xe2, 0xb0, 0xbd, 0xb7, 0x7d, 0x2e, 0xbe, 0xe6, 0xd8, 0x1e, 0x3d,
  0x18, 0x4b, 0x5e, 0xbe, 0xd0, 0x51, 0x62, 0xbe, 0x75, 0x66, 0x0a, 0x3e,
  0x7b, 0xe6, 0x17, 0xbe, 0xd7, 0x1e, 0x6c, 0xbe, 0x44, 0x43, 0xe5, 0x3d,
  0xd6, 0x15, 0x89, 0xbd, 0x29, 0x02, 0x02, 0xbe, 0xce, 0xec, 0x35, 0xbe,
  0x0e, 0xab, 0x36, 0xbe, 0xf3, 0xfb, 0x1d, 0xbe, 0x7b, 0xba, 0x85, 0xbd,
  0xa5, 0xe2, 0x21, 0xbd, 0x08, 0x63, 0x97, 0xbe, 0xfc, 0x70, 0x02, 0xbc,
  0xd1, 0x7a, 0x7b, 0xbd, 0x8f, 0xb9, 0x48, 0xbe, 0xa8, 0x98, 0xa9, 0xbd,
  0xb7, 0x30, 0xaf, 0xbc, 0x2e, 0x1d, 0x74, 0xbd, 0xe4, 0xb9, 0x26, 0xbe,
  0x90, 0x9f, 0x38, 0x3d, 0xb3, 0xf5, 0xc4, 0x3d, 0xe4, 0x0e, 0xaa, 0x3d,
  0x50, 0xeb, 0x01, 0x3d, 0xfe, 0x94, 0x99, 0x3e, 0x26, 0x00, 0x87, 0x3d,
  0xe5, 0x8c, 0x31, 0xbd, 0x49, 0x9a, 0x48, 0xbe, 0xc2, 0x98, 0x55, 0xbe,
  0x3d, 0xd7, 0xc6, 0x3e, 0x36, 0x93, 0xf7, 0xbd, 0x5c, 0xd6, 0xde, 0xbc,
  0xc7, 0x2f, 0x9b, 0xbe, 0xe3, 0x41, 0xee, 0xbd, 0x1c, 0x1a, 0x02, 0x3d,
  0xe7, 0x54, 0x80, 0x3d, 0xe9, 0xbe, 0xc2, 0x3d, 0x7c, 0x0c, 0x17, 0x3e,
  0x00, 0x1e, 0xd6, 0x3c, 0x4b, 0xa1, 0x12, 0xbe, 0x56, 0x84, 0x23, 0x3d,
  0x15, 0x70, 0x0f, 0xbe, 0x13, 0x5c, 0x11, 0x3d, 0x9b, 0x53, 0x92, 0x3d,
  0x37, 0x36, 0x77, 0xbd, 0xef, 0xaf, 0x6d, 0x3e, 0x9b, 0xb1, 0x1a, 0xbc,
  0x08, 0x60, 0x42, 0x3b, 0xd8, 0xae, 0x23, 0xbe, 0xe4, 0x50, 0x92, 0x3d,
  0xc0, 0xba, 0x2f, 0xbd, 0x1c, 0x05, 0x90, 0xbd, 0x81, 0xa9, 0xa8, 0x3d,
  0x6b, 0x02, 0x10, 0x3e, 0x87, 0x08, 0x4b, 0xbe, 0xeb, 0xad, 0x47, 0xbe,
  0x20, 0xbf, 0x81, 0x3d, 0x41, 0x91, 0x94, 0xbe, 0xa5, 0xb7, 0x6c, 0x3d,
  0xb9, 0xe4, 0xca, 0xbd, 0xe4, 0x33, 0x2d, 0x3e, 0xc0, 0xf7, 0x9f, 0x3e,
  0xb5, 0x40, 0x96, 0x3c, 0x54, 0x6b, 0xa2, 0xbe, 0x9e, 0x3f, 0x46, 0x3d,
  0x80, 0xfe, 0x96, 0xbd, 0xae, 0x6d, 0x20, 0x3e, 0xf3, 0x5e, 0x98, 0x3d,
  0xd5, 0x45, 0x43, 0xbd, 0x19, 0x93, 0x1d, 0x3e, 0xb5, 0x82, 0xf0, 0x3b,
  0xd7, 0xf7, 0x69, 0x3e, 0x04, 0xfb, 0x86, 0x3e, 0xb0, 0x63, 0xbd, 0x3c,
  0xdc, 0x27, 0x48, 0xbd, 0x92, 0xd0, 0x5f, 0xbe, 0x9f, 0xc3, 0x21, 0x3e,
  0x83, 0xf3, 0xb9, 0x3c, 0xd5, 0x90, 0x4b, 0x3d, 0xa1, 0xb3, 0x76, 0xbd,
  0xef, 0x2e, 0x03, 0x3e, 0x76, 0x67, 0x0f, 0xbb, 0x91, 0x62, 0x6f, 0x3c,
  0x50, 0x6e, 0x3a, 0x3a, 0x74, 0x6c, 0x36, 0x3e, 0x3c, 0xdc, 0x7b, 0x3e,
  0xd3, 0xe0, 0x12, 0x3e, 0x53, 0x47, 0x55, 0xba, 0x47, 0x8e, 0x2f, 0xbe,
  0x3b, 0xf4, 0xca, 0x3c, 0xbe, 0xb5, 0xd8, 0x3d, 0xc3, 0xee, 0xe5, 0x3a,
  0xfa, 0x25, 0x2a, 0xbe, 0xc3, 0x9a, 0xcd, 0x3c, 0xd4, 0x50, 0x78, 0x3e,
  0xf0, 0x2d, 0x9c, 0xbe, 0x86, 0xf8, 0x96, 0xbd, 0x78, 0xcc, 0xba, 0xbd,
  0xf5, 0x19, 0x10, 0xbe, 0x78, 0x2e, 0xda, 0x3d, 0xad, 0x5a, 0x7b, 0x3e,
  0xb4, 0x87, 0x59, 0x3d, 0xe1, 0x16, 0x21, 0x3e, 0xd1, 0x3e, 0x14, 0xbe,
  0x37, 0xa9, 0x24, 0xbc, 0x97, 0x7f, 0x8b, 0xbd, 0xdc, 0x72, 0x64, 0xbe,
  0x05, 0x46, 0x54, 0xbd, 0xf3, 0x05, 0x09, 0xbe, 0xaa, 0x33, 0x8c, 0x3e,
  0xe2, 0x6a, 0xff, 0x3d, 0xda, 0xbb, 0x77, 0xbe, 0x1a, 0x6e, 0x3a, 0xbe,
  0xd2, 0x59, 0x6b, 0xbd, 0xd1, 0xd1, 0xaa, 0xbd, 0x76, 0x6c, 0xb7, 0xbd,
  0xba, 0x5a, 0xc7, 0x3c, 0x95, 0xcf, 0xdd, 0xbd, 0xe6, 0x36, 0x22, 0xbd,
  0x28, 0x5a, 0x19, 0xbe, 0x1c, 0x50, 0x1f, 0x3d, 0x51, 0xcd, 0xf7, 0xbd,
  0xf0, 0xd5, 0x2d, 0x3e, 0x82, 0xcc, 0xb2, 0xbd, 0x17, 0xa2, 0xf6, 0xbd,
  0xde, 0xab, 0xbd, 0x3c, 0x13, 0xfe, 0x20, 0x3c, 0xa8, 0xcc, 0x77, 0xbe,
  0x5c, 0x79, 0x2e, 0x3d, 0x70, 0x3f, 0xc2, 0xbc, 0x27, 0x16, 0x45, 0xbe,
  0x20, 0xf0, 0x28, 0xbe, 0xab, 0x99, 0x07, 0x3e, 0xe3, 0x20, 0x2c, 0x3d,
  0x9c, 0xa1, 0x6e, 0xbd, 0x83, 0x05, 0x69, 0xbc, 0xc5, 0xce, 0xbb, 0x3d,
  0x4f, 0xba, 0x11, 0xbf, 0x35, 0xc7, 0x90, 0xbe, 0x6f, 0x74, 0x31, 0x3e,
  0x72, 0x57, 0x26, 0xbe, 0xc7, 0x95, 0x83, 0x3e, 0x7f, 0xf8, 0xad, 0xbe,
  0xdf, 0x92, 0x34, 0xbe, 0xdc, 0xef, 0xb2, 0xbe, 0x98, 0x17, 0xd1, 0xbe,
  0xaa, 0x10, 0x22, 0x3c, 0x64, 0xac, 0x1f, 0xbe, 0xb4, 0xe8, 0x9e, 0x3e,
  0xc7, 0xba, 0x80, 0x3e, 0x7b, 0xca, 0x54, 0xbe, 0x2f, 0x8d, 0x43, 0xbe,
  0x83, 0xc5, 0x09, 0xbd, 0x27, 0xa2, 0xc4, 0x3b, 0xc6, 0x23, 0x16, 0xbe,
  0xd4, 0x3f, 0xa9, 0xbc, 0x1c, 0x95, 0x2d, 0xbd, 0x00, 0x5f, 0x0a, 0x3f,
  0xfe, 0x16, 0x55, 0xbe, 0x85, 0xb5, 0xd5, 0x3a, 0x9b, 0x6d, 0x83, 0xbe,
  0xfb, 0x2a, 0xd4, 0x3d, 0x76, 0xb9, 0xd5, 0xbd, 0xa8, 0x2e, 0xf0, 0x3d,
  0xa6, 0x54, 0x24, 0x3e, 0x38, 0x57, 0x4f, 0x3d, 0x3f, 0xde, 0x51, 0xbb,
  0x18, 0x82, 0xb6, 0xbd, 0xcb, 0xda, 0x1d, 0xbe, 0xf2, 0x57, 0x39, 0xbe,
  0x5e, 0xc4, 0xb4, 0xbd, 0x9e, 0xf8, 0xc9, 0xbd, 0x78, 0x18, 0xc5, 0x3d,
  0xd9, 0x9b, 0x69, 0x3e, 0xe6, 0x86, 0x12, 0x3e, 0x90, 0x2c, 0x8a, 0xbc,
  0xae, 0xc9, 0x5e, 0x3e, 0x74, 0x15, 0x9c, 0x3e, 0xe6, 0x74, 0x99, 0xbd,
  0x5f, 0x3d, 0xbf, 0x3d, 0x0f, 0x80, 0x88, 0xbe, 0x6c, 0xb7, 0xb8, 0xbd,
  0x44, 0x09, 0x2c, 0x3e, 0x83, 0x4a, 0x1c, 0x3e, 0xf0, 0x0f, 0x81, 0x3e,
  0x83, 0x9c, 0x83, 0xbe, 0xfe, 0x9f, 0x96, 0xbe, 0x0d, 0xe2, 0x0e, 0xbd,
  0x0b, 0x94, 0x96, 0xbc, 0x8f, 0xa8, 0x41, 0x3f, 0x66, 0xc4, 0x1d, 0x3e,
  0x0d, 0xdc, 0xa6, 0xbd, 0x33, 0x78, 0x40, 0xbd, 0xb1, 0xe1, 0x9e, 0x3b,
  0x32, 0xab, 0xf9, 0x3d, 0x36, 0x1b, 0x86, 0xbd, 0xe9, 0x8a, 0x5c, 0x3e,
  0x30, 0x9c, 0x3c, 0x3e, 0x55, 0x8f, 0xd6, 0x3c, 0xe0, 0xc7, 0xec, 0xbb,
  0x29, 0xf0, 0x91, 0x3e, 0xca, 0xb6, 0x99, 0x3d, 0x3e, 0x50, 0x91, 0xbe,
  0x66, 0x4f, 0xf3, 0x3d, 0x22, 0xe7, 0x54, 0xbe, 0x00, 0x2f, 0x2c, 0x3f,
  0x70, 0x71, 0x1c, 0x3e, 0x79, 0x9b, 0xc4, 0xbd, 0xc9, 0x9f, 0xad, 0xbd,
  0x2a, 0x5a, 0xbc, 0xbe, 0xd7, 0x28, 0x00, 0x3e, 0xe8, 0xf6, 0xd1, 0xbd,
  0x7d, 0xc0, 0x57, 0x3e, 0x67, 0x7b, 0x93, 0x3e, 0x23, 0x1a, 0xb4, 0xbe,
  0xd7, 0x2f, 0xb5, 0xbd, 0x99, 0x08, 0x63, 0x3e, 0xc4, 0xed, 0xb2, 0xbc,
  0xf9, 0x7f, 0x89, 0xbe, 0x53, 0x46, 0xa5, 0x3d, 0x95, 0xd7, 0xf3, 0xbe,
  0x31, 0x55, 0x2a, 0x3f, 0x8f, 0x89, 0x72, 0xbe, 0x23, 0x9a, 0x27, 0x3c,
  0xf1, 0x57, 0x07, 0xbf, 0x7f, 0xbf, 0xf8, 0x3d, 0x8b, 0xf1, 0xbb, 0x3c,
  0xf3, 0xfe, 0x30, 0x3e, 0xab, 0x06, 0x81, 0x3e, 0xb7, 0x49, 0x94, 0x3e,
  0xb1, 0x45, 0xf6, 0xbd, 0x23, 0x9c, 0x9a, 0xbe, 0x4e, 0x1a, 0xf0, 0x3c,
  0xd7, 0xd1, 0xea, 0xbe, 0xce, 0x29, 0x33, 0xbd, 0x07, 0x29, 0xa9, 0xbd,
  0x84, 0x58, 0x41, 0xbe, 0xaf, 0x1e, 0x4a, 0x3c, 0x3a, 0x58, 0xb3, 0xbc,
  0x3a, 0x63, 0x8f, 0xbd, 0x35, 0x15, 0x15, 0xbe, 0x7c, 0x23, 0x82, 0x3e,
  0x78, 0x24, 0x2d, 0x3d, 0x02, 0xe0, 0xd5, 0x3c, 0x1b, 0x4c, 0x2f, 0x3e,
  0x54, 0x54, 0x01, 0x3e, 0x86, 0x22, 0x16, 0xbd, 0x9f, 0xbb, 0x49, 0xbe,
  0xc1, 0x53, 0x45, 0xbe, 0xba, 0xf9, 0x60, 0xbd, 0x20, 0x81, 0x7d, 0x3d,
  0x5c, 0xea, 0x17, 0xbe, 0xa7, 0x0e, 0x9a, 0xbe, 0x7e, 0xf3, 0x0a, 0x3f,
  0xc6, 0xa1, 0x71, 0xbe, 0x9d, 0xc6, 0x85, 0xbe, 0xcd, 0xbe, 0x33, 0xbe,
  0xcd, 0x84, 0x52, 0xbd, 0x82, 0xad, 0x92, 0xbe, 0x97, 0x34, 0x29, 0xbe,
  0x75, 0x3c, 0xd3, 0xbe, 0x45, 0x4a, 0xa0, 0x3d, 0x1b, 0x95, 0x72, 0xbe,
  0xfa, 0xa1, 0x88, 0xbe, 0x7a, 0xbd, 0x95, 0x3d, 0x4c, 0x4e, 0xd0, 0xbd,
  0x51, 0xb0, 0x40, 0xbe, 0xc2, 0x8e, 0xaa, 0xbe, 0x23, 0x82, 0x39, 0xbd,
  0x07, 0xe4, 0xe2, 0x3e, 0xc9, 0xd3, 0x20, 0xbb, 0xc0, 0x62, 0x63, 0xbe,
  0x40, 0x32, 0xdd, 0xbb, 0x14, 0x33, 0x85, 0xbd, 0x92, 0xc8, 0x6b, 0xbe,
  0x42, 0xa9, 0xab, 0xbe, 0x8f, 0xa4, 0x19, 0xbe, 0x23, 0x05, 0x08, 0x3e,
  0xbe, 0xc0, 0x7d, 0x3c, 0xd1, 0x38, 0x90, 0xbe, 0x6f, 0xa9, 0x8a, 0xbe,
  0x9a, 0x3e, 0x7c, 0xbd, 0xd6, 0x79, 0x1a, 0xbd, 0xf6, 0x39, 0x06, 0xbe,
  0xbd, 0xad, 0xd5, 0xbd, 0x59, 0xda, 0x20, 0x3f, 0xdc, 0x44, 0x1f, 0x3e,
  0x46, 0x35, 0xd0, 0xbe, 0x09, 0xcc, 0x3a, 0xbe, 0x48, 0xdc, 0x47, 0x3c,
  0x6d, 0x83, 0xe9, 0xba, 0x5e, 0xa9, 0x18, 0xbe, 0x7d, 0x08, 0xc4, 0xbd,
  0xb4, 0x0f, 0x95, 0xbd, 0xdd, 0x02, 0x66, 0x3d, 0x51, 0x0d, 0xda, 0xbe,
  0x63, 0x84, 0xe3, 0xbd, 0x3a, 0x2b, 0xce, 0x3d, 0x67, 0xaf, 0x22, 0x3e,
  0xac, 0x4b, 0x61, 0xbe, 0x54, 0x6c, 0xb8, 0x3c, 0xb2, 0xd1, 0x1b, 0x3f,
  0xcd, 0x46, 0x81, 0xbe, 0xc7, 0x7c, 0x3a, 0xbe, 0xb0, 0x84, 0x16, 0xbe,
  0xae, 0x13, 0xdd, 0xbc, 0x7d, 0x79, 0x20, 0xbd, 0xa7, 0x36, 0x81, 0xbe,
  0x5e, 0x87, 0x59, 0x3e, 0x1b, 0x9e, 0x2c, 0xbe, 0xed, 0x47, 0x58, 0xbe,
  0x1e, 0x6e, 0x24, 0xbd, 0x76, 0x14, 0x49, 0xbe, 0xa5, 0x69, 0x25, 0xbe,
  0x52, 0x7d, 0x67, 0x3d, 0xff, 0x61, 0x33, 0xbc, 0x2e, 0x09, 0x3c, 0xbd,
  0x7b, 0xa5, 0x18, 0x3f, 0xf7, 0x3f, 0x99, 0x3d, 0x3f, 0xcd, 0xda, 0xbd,
  0x79, 0xa6, 0x52, 0x3c, 0x7a, 0x1b, 0x91, 0xbd, 0x55, 0xc9, 0xa7, 0x3c,
  0x07, 0x0d, 0x36, 0x3d, 0xf2, 0xaa, 0x4d, 0xbe, 0xd0, 0xeb, 0x80, 0xbe,
  0xe8, 0x25, 0xd7, 0x3e, 0x03, 0xd8, 0x2e, 0xbe, 0x03, 0x26, 0x49, 0x3e,
  0x98, 0xea, 0xbe, 0x3e, 0x71, 0xc6, 0xb5, 0x3d, 0x56, 0xdb, 0x7e, 0xbd,
  0xc3, 0x83, 0x36, 0x3d, 0x62, 0xb7, 0x0a, 0x3f, 0x64, 0xad, 0x31, 0x3e,
  0x24, 0x5f, 0x00, 0xbd, 0x6d, 0x71, 0xa5, 0x3c, 0x05, 0xce, 0xa3, 0xbe,
  0xca, 0xe9, 0xc4, 0xbc, 0x38, 0x90, 0x9d, 0xbe, 0x80, 0x2c, 0x6e, 0xbe,
  0x27, 0xbf, 0xb1, 0x3c, 0xfc, 0xdf, 0x9c, 0x3e, 0xc9, 0x83, 0xca, 0x3e,
  0x01, 0xd9, 0x85, 0xbd, 0xe5, 0x17, 0x9f, 0xbe, 0x65, 0xb1, 0x85, 0xbd,
  0x75, 0xe1, 0xa0, 0xbd, 0x2a, 0xd8, 0xb7, 0xbd, 0xf8, 0x61, 0x97, 0x3e,
  0x0f, 0x38, 0xa2, 0xbc, 0x8b, 0xe3, 0x08, 0xbe, 0xa7, 0x10, 0xcc, 0x3b,
  0x55, 0x97, 0x6d, 0xbe, 0x50, 0x14, 0x96, 0xbc, 0xb3, 0x0d, 0x0c, 0xbe,
  0xcc, 0x20, 0xef, 0xbc, 0x8c, 0xe3, 0x99, 0x3e, 0x1d, 0x08, 0xe2, 0xbd,
  0xab, 0xf4, 0x12, 0xbe, 0xfb, 0xaf, 0xa4, 0x3d, 0x6d, 0x4c, 0xd7, 0x3d,
  0xe6, 0x14, 0x10, 0xbd, 0x42, 0x14, 0x83, 0xbc, 0x5f, 0xc8, 0xd3, 0x3d,
  0xfd, 0xa4, 0x88, 0xbe, 0xb0, 0x8e, 0x17, 0x3e, 0x67, 0x11, 0x85, 0xbe,
  0x6a, 0x1c, 0x63, 0xbd, 0xde, 0xec, 0x55, 0xbd, 0x06, 0x5e, 0xe9, 0xbd,
  0x3a, 0x87, 0xa5, 0xbe, 0x98, 0x82, 0x2d, 0xbf, 0xed, 0xee, 0x3e, 0x3e,
  0xdd, 0x50, 0x1e, 0x3e, 0xd7, 0x78, 0x7c, 0x3e, 0x9c, 0xf3, 0x94, 0x3e,
  0xd9, 0x76, 0x10, 0x3e, 0xb7, 0x18, 0x5f, 0xbe, 0x48, 0x6e, 0x92, 0x3d,
  0x9e, 0x1e, 0x26, 0x3e, 0xf1, 0x84, 0xae, 0xbe, 0x60, 0xf9, 0x2b, 0x3e,
  0x5a, 0xe9, 0xdf, 0xbc, 0xdb, 0x73, 0x0f, 0x3e, 0x06, 0xf5, 0x54, 0xbe,
  0x01, 0x39, 0x93, 0x3d, 0x2a, 0x56, 0x91, 0xbe, 0x56, 0x5d, 0x40, 0xbd,
  0xbe, 0x54, 0xc4, 0x3e, 0x53, 0xd4, 0x8e, 0x3d, 0xa7, 0x15, 0x6a, 0x3e,
  0x45, 0x68, 0x6c, 0x3e, 0x43, 0xdf, 0x9b, 0xbd, 0xe7, 0xa0, 0x47, 0xbe,
  0x7d, 0xfe, 0x8b, 0xbe, 0xc5, 0x58, 0x18, 0xbe, 0xd8, 0x95, 0xe8, 0xbd,
  0x06, 0x12, 0x8d, 0xbe, 0x3e, 0xb1, 0x71, 0xbd, 0xf3, 0x55, 0x18, 0xbe,
  0x92, 0xeb, 0x9f, 0xbd, 0x79, 0x04, 0x16, 0xbe, 0xdf, 0xb9, 0xc4, 0xbe,
  0xfc, 0x2d, 0xa4, 0x3e, 0x1c, 0x14, 0x9d, 0x3d, 0x26, 0xf7, 0xc1, 0xbe,
  0xde, 0xb9, 0x1a, 0xbf, 0x21, 0x25, 0x0b, 0xbe, 0x71, 0x99, 0x86, 0xbd,
  0xc9, 0x1b, 0xf7, 0xbd, 0xd9, 0x89, 0x5d, 0xbf, 0xb0, 0x15, 0x89, 0xbf,
  0xcb, 0x05, 0xaa, 0xbe, 0x9e, 0x82, 0xe9, 0xbe, 0xde, 0x4d, 0x2c, 0xbd,
  0x0a, 0xc1, 0x87, 0xbe, 0x84, 0x9f, 0xe8, 0x3d, 0x51, 0x8d, 0x3f, 0xbf,
  0x87, 0xd4, 0x15, 0xbf, 0x2b, 0x90, 0xe8, 0xbe, 0xed, 0xb6, 0x38, 0x3e,
  0x36, 0x47, 0x6e, 0xbe, 0x5e, 0xbd, 0xf2, 0xbe, 0x1f, 0x45, 0x3b, 0xbe,
  0x7a, 0x65, 0x5d, 0xbd, 0x84, 0x74, 0xe5, 0x3d, 0x07, 0x25, 0x35, 0xbe,
  0x12, 0x4e, 0x0f, 0xbf, 0x9b, 0xb2, 0x67, 0xbe, 0x87, 0x7b, 0x0b, 0xbf,
  0x39, 0xda, 0x07, 0xbe, 0x80, 0xc9, 0x82, 0xbe, 0xc4, 0xf0, 0x2f, 0x3e,
  0x14, 0x69, 0xd1, 0xbd, 0x0a, 0xe5, 0x8a, 0xbd, 0x19, 0x40, 0x2d, 0xbf,
  0xca, 0xd6, 0x03, 0xbe, 0x55, 0x70, 0xfa, 0x3c, 0x2c, 0x52, 0x28, 0xbf,
  0x06, 0x6d, 0x94, 0xbd, 0x2b, 0xcc, 0x6c, 0xbe, 0x03, 0xe2, 0xfa, 0x3d,
  0x6f, 0x09, 0xda, 0x3c, 0xf4, 0xf0, 0x39, 0x3c, 0xfe, 0xa4, 0x2c, 0xbe,
  0xec, 0x0e, 0x5c, 0x3e, 0xc7, 0x48, 0x86, 0xbb, 0x8d, 0xbb, 0x91, 0xbe,
  0x41, 0x48, 0x0b, 0xbe, 0x1e, 0x7e, 0x08, 0x3d, 0xdb, 0xea, 0x9e, 0xbe,
  0xc7, 0xba, 0x17, 0xbf, 0x39, 0x90, 0xb5, 0xbe, 0x71, 0x53, 0xbd, 0x3e,
  0x84, 0xef, 0x33, 0x3e, 0xb8, 0x6d, 0xbd, 0x3d, 0x50, 0x4b, 0x2b, 0xbc,
  0xc4, 0x06, 0x9f, 0x3e, 0x7e, 0x90, 0xa1, 0x3d, 0x38, 0x6f, 0xd8, 0xbc,
  0x20, 0x6e, 0xf4, 0xbe, 0x79, 0xfa, 0x10, 0x3e, 0xb6, 0xeb, 0x02, 0x3e,
  0x97, 0xb1, 0x65, 0x3d, 0x17, 0xe8, 0x02, 0xbf, 0xb5, 0x3b, 0x23, 0x3e,
  0x43, 0xd6, 0x87, 0xbe, 0xa6, 0x91, 0xa8, 0xbe, 0x31, 0x72, 0xfc, 0x3d,
  0xb5, 0x14, 0x06, 0x3e, 0x28, 0x77, 0x9f, 0xbb, 0x3c, 0x14, 0x7a, 0xbe,
  0x10, 0x99, 0x07, 0xbf, 0x64, 0x1e, 0xec, 0xbd, 0xe4, 0x41, 0x94, 0xbe,
  0xcf, 0xa7, 0x44, 0xbb, 0x76, 0x30, 0x40, 0x3f, 0xfe, 0x68, 0xab, 0xbe,
  0x7e, 0xf8, 0xa8, 0xbe, 0xa5, 0x43, 0x8b, 0xbd, 0x1b, 0x82, 0x8f, 0x3d,
  0xc8, 0x12, 0x08, 0xbe, 0x58, 0xe9, 0xce, 0xbd, 0xf5, 0x98, 0x36, 0xbd,
  0x3a, 0xce, 0xb5, 0xbd, 0x7d, 0xfd, 0xaf, 0xbd, 0x6b, 0x59, 0x72, 0xbe,
  0x9a, 0xed, 0xdc, 0xbd, 0x94, 0xa7, 0x7f, 0x3d, 0xed, 0xec, 0x8e, 0x3e,
  0x42, 0x0d, 0xa8, 0x3d, 0xc6, 0x48, 0xfb, 0x3b, 0x2f, 0xd6, 0x5d, 0x3f,
  0x5a, 0x22, 0xab, 0x3e, 0xb5, 0x83, 0xeb, 0xbe, 0x2a, 0x4f, 0xba, 0x3c,
  0x7c, 0xb2, 0x30, 0xbe, 0xaa, 0xe2, 0xa7, 0xbe, 0x1d, 0x95, 0xa7, 0xbe,
  0x4c, 0xbc, 0xd7, 0x3e, 0x65, 0xc9, 0xb8, 0xbd, 0x15, 0x93, 0x95, 0xbd,
  0xc0, 0x1a, 0xa9, 0xbe, 0xc8, 0xef, 0x75, 0xbe, 0x8c, 0xce, 0xa2, 0x3d,
  0x56, 0x84, 0xce, 0xbd, 0x1d, 0xc2, 0x9b, 0x3c, 0xa9, 0x56, 0xcc, 0xbc,
  0x6d, 0xcb, 0x77, 0x3f, 0x61, 0x57, 0x7e, 0x3e, 0xf4, 0x63, 0xe1, 0xbe,
  0x4b, 0xc6, 0x5f, 0xbe, 0x22, 0x67, 0x9e, 0xbe, 0x65, 0x7c, 0x5f, 0x3d,
  0xf6, 0x9e, 0x00, 0xbd, 0x0c, 0x4b, 0x21, 0x3d, 0xb1, 0x26, 0x9e, 0x3d,
  0xfa, 0x15, 0xe8, 0x3d, 0xbc, 0x25, 0x65, 0xbe, 0x03, 0xed, 0x26, 0xbe,
  0xfb, 0xab, 0x21, 0xbd, 0x73, 0x33, 0xb2, 0x3d, 0x6d, 0x29, 0x57, 0x3c,
  0xf2, 0x4a, 0x13, 0xbe, 0x4c, 0xf4, 0x88, 0x3f, 0x90, 0x80, 0x6d, 0x3d,
  0x34, 0xfc, 0x07, 0xbf, 0xe2, 0x63, 0xa0, 0xbc, 0xd9, 0x59, 0x61, 0xbe,
  0x1b, 0x68, 0xbd, 0xbd, 0xe1, 0x4f, 0xc9, 0xbd, 0x8a, 0xe7, 0xc1, 0xbe,
  0xba, 0x93, 0x6e, 0x3d, 0x79, 0x17, 0xae, 0x3d, 0x0b, 0x0b, 0xa0, 0xbe,
  0xe7, 0x1f, 0xc8, 0x3c, 0xd8, 0x6e, 0xd4, 0xbd, 0xc8, 0x4b, 0x2c, 0x3d,
  0x26, 0xde, 0xd1, 0x3d, 0x8c, 0x70, 0xec, 0xbc, 0xa8, 0xfe, 0x84, 0x3f,
  0x9b, 0x38, 0xaf, 0x3e, 0x4a, 0xdf, 0xa7, 0xbe, 0x34, 0xb8, 0xb6, 0xbd,
  0x96, 0xbc, 0x83, 0xbd, 0x22, 0x5f, 0xc0, 0xbd, 0xe8, 0x00, 0x3a, 0xbe,
  0x34, 0xf0, 0x66, 0xbe, 0x69, 0x4e, 0x99, 0xbe, 0xbe, 0x86, 0x12, 0xbd,
  0x9f, 0x08, 0xc5, 0xbe, 0xe3, 0xf4, 0x0d, 0xbe, 0x99, 0xee, 0x41, 0x3e,
  0x39, 0x14, 0x8a, 0x3d, 0xdd, 0x16, 0xa2, 0xbd, 0x60, 0x97, 0x2b, 0xbd,
  0x3d, 0x6b, 0x5e, 0x3f, 0x5e, 0xf7, 0x8b, 0x3d, 0x32, 0x0f, 0xcb, 0xbe,
  0xf7, 0xfd, 0x56, 0xbe, 0xa6, 0xa9, 0xb2, 0xbd, 0x4b, 0x5b, 0x73, 0xbd,
  0xe6, 0x60, 0xc2, 0xbd, 0x30, 0x91, 0x8c, 0x3d, 0xcc, 0x1a, 0xbc, 0x3d,
  0x95, 0xcb, 0x45, 0xbe, 0xd9, 0xd1, 0x02, 0xbe, 0xbe, 0x1f, 0x32, 0xbd,
  0x6b, 0x30, 0x8f, 0xbe, 0x9c, 0x74, 0x5f, 0xbe, 0xbd, 0x70, 0x57, 0xbe,
  0xb0, 0x18, 0x82, 0xbe, 0x8e, 0xea, 0x34, 0x3f, 0x7a, 0x1c, 0xf7, 0xbd,
  0x27, 0xe2, 0xe0, 0xbe, 0x22, 0xf3, 0x72, 0xbd, 0x57, 0x21, 0x9c, 0xbe,
  0x4d, 0x72, 0x95, 0xbe, 0x5c, 0xdf, 0xe1, 0xbe, 0xfe, 0xf7, 0x30, 0x3d,
  0x4e, 0x65, 0x6f, 0xbe, 0xcb, 0x38, 0x58, 0xbe, 0xb6, 0x9c, 0x46, 0xbe,
  0x46, 0xfe, 0xff, 0xff, 0x10, 0x00, 0x00, 0x00, 0x05, 0x00, 0x00, 0x00,
  0x14, 0x00, 0x00, 0x00, 0x2c, 0x00, 0x00, 0x00, 0x02, 0x00, 0x00, 0x00,
  0x10, 0x00, 0x00, 0x00, 0x70, 0x00, 0x00, 0x00, 0x17, 0x00, 0x00, 0x00,
  0x73, 0x65, 0x71, 0x75, 0x65, 0x6e, 0x74, 0x69, 0x61, 0x6c, 0x2f, 0x64,
  0x65, 0x6e, 0x73, 0x65, 0x2f, 0x4d, 0x61, 0x74, 0x4d, 0x75, 0x6c, 0x00,
  0x34, 0xfe, 0xff, 0xff, 0x2a, 0xff, 0xff, 0xff, 0x04, 0x00, 0x00, 0x00,
  0x08, 0x00, 0x00, 0x00, 0xff, 0xff, 0xff, 0xff, 0x70, 0x00, 0x00, 0x00,
  0x00, 0x00, 0x0e, 0x00, 0x18, 0x00, 0x08, 0x00, 0x07, 0x00, 0x0c, 0x00,
  0x10, 0x00, 0x14, 0x00, 0x0e, 0x00, 0x00, 0x00, 0x00, 0x00, 0x00, 0x02,
  0x10, 0x00, 0x00, 0x00, 0x04, 0x00, 0x00, 0x00, 0x10, 0x00, 0x00, 0x00,
  0x2c, 0x00, 0x00, 0x00, 0x01, 0x00, 0x00, 0x00, 0x02, 0x00, 0x00, 0x00,
  0x18, 0x00, 0x00, 0x00, 0x73, 0x65, 0x71, 0x75, 0x65, 0x6e, 0x74, 0x69,
  0x61, 0x6c, 0x2f, 0x66, 0x6c, 0x61, 0x74, 0x74, 0x65, 0x6e, 0x2f, 0x43,
  0x6f, 0x6e, 0x73, 0x74, 0x00, 0x00, 0x00, 0x00, 0x9c, 0xfe, 0xff, 0xff,
  0x92, 0xff, 0xff, 0xff, 0x04, 0x00, 0x00, 0x00, 0x10, 0x00, 0x00, 0x00,
  0xd8, 0xd9, 0x56, 0xbf, 0x62, 0x56, 0x6e, 0xc0, 0xb7, 0xed, 0x31, 0xbf,
  0xf6, 0x87, 0x0e, 0x40, 0x0a, 0xff, 0xff, 0xff, 0x10, 0x00, 0x00, 0x00,
  0x03, 0x00, 0x00, 0x00, 0x10, 0x00, 0x00, 0x00, 0x3c, 0x00, 0x00, 0x00,
  0x01, 0x00, 0x00, 0x00, 0x04, 0x00, 0x00, 0x00, 0x29, 0x00, 0x00, 0x00,
  0x73, 0x65, 0x71, 0x75, 0x65, 0x6e, 0x74, 0x69, 0x61, 0x6c, 0x2f, 0x64,
  0x65, 0x6e, 0x73, 0x65, 0x5f, 0x31, 0x2f, 0x42, 0x69, 0x61, 0x73, 0x41,
  0x64, 0x64, 0x2f, 0x52, 0x65, 0x61, 0x64, 0x56, 0x61, 0x72, 0x69, 0x61,
  0x62, 0x6c, 0x65, 0x4f, 0x70, 0x00, 0x00, 0x00, 0x60, 0xff, 0xff, 0xff,
  0x00, 0x00, 0x06, 0x00, 0x08, 0x00, 0x04, 0x00, 0x06, 0x00, 0x00, 0x00,
  0x04, 0x00, 0x00, 0x00, 0x40, 0x00, 0x00, 0x00, 0x73, 0x1d, 0x3c, 0x40,
  0xfd, 0x28, 0xe7, 0x3c, 0xa4, 0x0b, 0x63, 0xbe, 0x09, 0x6b, 0x19, 0xbd,
  0x91, 0x90, 0xb7, 0xbe, 0xe3, 0x02, 0x98, 0xbe, 0x1b, 0x03, 0xe4, 0xbe,
  0x85, 0xbf, 0x7f, 0x40, 0x01, 0xae, 0xf9, 0xbf, 0x12, 0x12, 0xb2, 0xbf,
  0x95, 0x42, 0x33, 0xbe, 0x7d, 0x11, 0xda, 0xbd, 0x20, 0x9c, 0xef, 0x3f,
  0x5a, 0xab, 0xd8, 0xbe, 0xcd, 0x23, 0xed, 0xbf, 0x37, 0xce, 0x9d, 0xbd,
  0xae, 0xff, 0xff, 0xff, 0x10, 0x00, 0x00, 0x00, 0x02, 0x00, 0x00, 0x00,
  0x10, 0x00, 0x00, 0x00, 0x3c, 0x00, 0x00, 0x00, 0x01, 0x00, 0x00, 0x00,
  0x10, 0x00, 0x00, 0x00, 0x27, 0x00, 0x00, 0x00, 0x73, 0x65, 0x71, 0x75,
  0x65, 0x6e, 0x74, 0x69, 0x61, 0x6c, 0x2f, 0x64, 0x65, 0x6e, 0x73, 0x65,
  0x2f, 0x42, 0x69, 0x61, 0x73, 0x41, 0x64, 0x64, 0x2f, 0x52, 0x65, 0x61,
  0x64, 0x56, 0x61, 0x72, 0x69, 0x61, 0x62, 0x6c, 0x65, 0x4f, 0x70, 0x00,
  0x04, 0x00, 0x06, 0x00, 0x04, 0x00, 0x00, 0x00, 0x00, 0x00, 0x0e, 0x00,
  0x14, 0x00, 0x04, 0x00, 0x00, 0x00, 0x08, 0x00, 0x0c, 0x00, 0x10, 0x00,
  0x0e, 0x00, 0x00, 0x00, 0x10, 0x00, 0x00, 0x00, 0x01, 0x00, 0x00, 0x00,
  0x1c, 0x00, 0x00, 0x00, 0x2c, 0x00, 0x00, 0x00, 0x04, 0x00, 0x00, 0x00,
  0x01, 0x00, 0x00, 0x00, 0x40, 0x00, 0x00, 0x00, 0x03, 0x00, 0x00, 0x00,
  0x01, 0x00, 0x00, 0x00, 0x0c, 0x00, 0x00, 0x00, 0x63, 0x6f, 0x6e, 0x76,
  0x32, 0x64, 0x5f, 0x69, 0x6e, 0x70, 0x75, 0x74, 0x00, 0x00, 0x00, 0x00,
  0xfc, 0xff, 0xff, 0xff, 0x04, 0x00, 0x04, 0x00, 0x04, 0x00, 0x00, 0x00
  // Paste the data of the char array in `src/model.cc` here

};


unsigned int model_tflite_len =12384;// Fill the int in `src/model.cc` here