#include "magic_wand_model_data.h"


// We need to keep the data array aligned on some architectures.

#ifdef __has_attribute

#define HAVE_ATTRIBUTE(x) __has_attribute(x)

#else

#define HAVE_ATTRIBUTE(x) 0

#endif

#if HAVE_ATTRIBUTE(aligned) || (defined(__GNUC__) && !defined(__clang__))

#define DATA_ALIGN_ATTRIBUTE __attribute__((aligned(4)))

#else

#define DATA_ALIGN_ATTRIBUTE

#endif


const unsigned char g_magic_wand_model_data[] DATA_ALIGN_ATTRIBUTE = {
 0x08, 0x00, 0x00, 0x00, 0x54, 0x46, 0x4c, 0x33, 0x62, 0xff, 0xff, 0xff,
  0x03, 0x00, 0x00, 0x00, 0x10, 0x00, 0x00, 0x00, 0x24, 0x00, 0x00, 0x00,
  0x78, 0x00, 0x00, 0x00, 0x24, 0x00, 0x00, 0x00, 0x05, 0x00, 0x00, 0x00,
  0x78, 0x05, 0x00, 0x00, 0xb0, 0x04, 0x00, 0x00, 0xe0, 0x02, 0x00, 0x00,
  0x60, 0x02, 0x00, 0x00, 0x54, 0x01, 0x00, 0x00, 0x01, 0x00, 0x00, 0x00,
  0x78, 0x00, 0x00, 0x00, 0x13, 0x00, 0x00, 0x00, 0x90, 0x2f, 0x00, 0x00,
  0x8c, 0x2f, 0x00, 0x00, 0x98, 0x2e, 0x00, 0x00, 0x28, 0x2e, 0x00, 0x00,
  0xbc, 0x2d, 0x00, 0x00, 0x6c, 0x11, 0x00, 0x00, 0x98, 0x10, 0x00, 0x00,
  0xbc, 0x0e, 0x00, 0x00, 0x60, 0x06, 0x00, 0x00, 0xfc, 0x05, 0x00, 0x00,
  0x78, 0x05, 0x00, 0x00, 0x64, 0x2f, 0x00, 0x00, 0x60, 0x2f, 0x00, 0x00,
  0x5c, 0x2f, 0x00, 0x00, 0x58, 0x2f, 0x00, 0x00, 0x54, 0x2f, 0x00, 0x00,
  0x50, 0x2f, 0x00, 0x00, 0x4c, 0x2f, 0x00, 0x00, 0x48, 0x2f, 0x00, 0x00,
  0x0f, 0x00, 0x00, 0x00, 0x4d, 0x4c, 0x49, 0x52, 0x20, 0x43, 0x6f, 0x6e,
  0x76, 0x65, 0x72, 0x74, 0x65, 0x64, 0x2e, 0x00, 0x00, 0x00, 0x0e, 0x00,
  0x18, 0x00, 0x04, 0x00, 0x08, 0x00, 0x0c, 0x00, 0x10, 0x00, 0x14, 0x00,
  0x0e, 0x00, 0x00, 0x00, 0x14, 0x00, 0x00, 0x00, 0x5c, 0x00, 0x00, 0x00,
  0x60, 0x00, 0x00, 0x00, 0x64, 0x00, 0x00, 0x00, 0x84, 0x00, 0x00, 0x00,
  0x12, 0x00, 0x00, 0x00, 0xc0, 0x2e, 0x00, 0x00, 0x5c, 0x2e, 0x00, 0x00,
  0xb4, 0x2d, 0x00, 0x00, 0x58, 0x2d, 0x00, 0x00, 0xf0, 0x2c, 0x00, 0x00,
  0x9c, 0x10, 0x00, 0x00, 0xc0, 0x0f, 0x00, 0x00, 0xe4, 0x0d, 0x00, 0x00,
  0xa0, 0x05, 0x00, 0x00, 0x3c, 0x05, 0x00, 0x00, 0xb0, 0x04, 0x00, 0x00,
  0xe8, 0x03, 0x00, 0x00, 0x38, 0x03, 0x00, 0x00, 0xa4, 0x02, 0x00, 0x00,
  0x10, 0x02, 0x00, 0x00, 0x90, 0x01, 0x00, 0x00, 0xfc, 0x00, 0x00, 0x00,
  0x80, 0x00, 0x00, 0x00, 0x01, 0x00, 0x00, 0x00, 0x00, 0x00, 0x00, 0x00,
  0x01, 0x00, 0x00, 0x00, 0x11, 0x00, 0x00, 0x00, 0x08, 0x00, 0x00, 0x00,
  0x1c, 0x04, 0x00, 0x00, 0x58, 0x03, 0x00, 0x00, 0xc8, 0x02, 0x00, 0x00,
  0x24, 0x02, 0x00, 0x00, 0xac, 0x01, 0x00, 0x00, 0x10, 0x01, 0x00, 0x00,
  0x94, 0x00, 0x00, 0x00, 0x10, 0x00, 0x00, 0x00, 0x04, 0x00, 0x00, 0x00,
  0x6d, 0x61, 0x69, 0x6e, 0x00, 0x00, 0x00, 0x00, 0x8e, 0xff, 0xff, 0xff,
  0x00, 0x00, 0x00, 0x09, 0x04, 0x00, 0x00, 0x00, 0x1c, 0x00, 0x00, 0x00,
  0x10, 0x00, 0x00, 0x00, 0x04, 0x00, 0x00, 0x00, 0x92, 0xd2, 0xff, 0xff,
  0x00, 0x00, 0x80, 0x3f, 0x01, 0x00, 0x00, 0x00, 0x11, 0x00, 0x00, 0x00,
  0x01, 0x00, 0x00, 0x00, 0x10, 0x00, 0x00, 0x00, 0xf6, 0xfb, 0xff, 0xff,
  0x00, 0x00, 0x00, 0x19, 0x01, 0x00, 0x00, 0x00, 0x12, 0xd2, 0xff, 0xff,
  0x10, 0x00, 0x00, 0x00, 0x12, 0x00, 0x00, 0x00, 0x14, 0x00, 0x00, 0x00,
  0x20, 0x00, 0x00, 0x00, 0x02, 0x00, 0x00, 0x00, 0x01, 0x00, 0x00, 0x00,
  0x02, 0x00, 0x00, 0x00, 0x08, 0x00, 0x00, 0x00, 0x49, 0x64, 0x65, 0x6e,
  0x74, 0x69, 0x74, 0x79, 0x00, 0x00, 0x00, 0x00, 0x4c, 0xd2, 0xff, 0xff,
  0x00, 0x00, 0x0e, 0x00, 0x18, 0x00, 0x08, 0x00, 0x0c, 0x00, 0x10, 0x00,
  0x07, 0x00, 0x14, 0x00, 0x0e, 0x00, 0x00, 0x00, 0x00, 0x00, 0x00, 0x08,
  0x03, 0x00, 0x00, 0x00, 0x18, 0x00, 0x00, 0x00, 0x0c, 0x00, 0x00, 0x00,
  0x04, 0x00, 0x00, 0x00, 0x20, 0xd2, 0xff, 0xff, 0x01, 0x00, 0x00, 0x00,
  0x10, 0x00, 0x00, 0x00, 0x03, 0x00, 0x00, 0x00, 0x0f, 0x00, 0x00, 0x00,
  0x05, 0x00, 0x00, 0x00, 0x02, 0x00, 0x00, 0x00, 0x8a, 0xd2, 0xff, 0xff,
  0x10, 0x00, 0x00, 0x00, 0x11, 0x00, 0x00, 0x00, 0x14, 0x00, 0x00, 0x00,
  0x30, 0x00, 0x00, 0x00, 0x02, 0x00, 0x00, 0x00, 0x01, 0x00, 0x00, 0x00,
  0x02, 0x00, 0x00, 0x00, 0x1a, 0x00, 0x00, 0x00, 0x73, 0x65, 0x71, 0x75,
  0x65, 0x6e, 0x74, 0x69, 0x61, 0x6c, 0x2f, 0x64, 0x65, 0x6e, 0x73, 0x65,
  0x5f, 0x31, 0x2f, 0x42, 0x69, 0x61, 0x73, 0x41, 0x64, 0x64, 0x00, 0x00,
  0x7c, 0xd2, 0xff, 0xff, 0xd6, 0xfd, 0xff, 0xff, 0x00, 0x00, 0x00, 0x08,
  0x03, 0x00, 0x00, 0x00, 0x24, 0x00, 0x00, 0x00, 0x18, 0x00, 0x00, 0x00,
  0x0c, 0x00, 0x00, 0x00, 0x00, 0x00, 0x06, 0x00, 0x08, 0x00, 0x07, 0x00,
  0x06, 0x00, 0x00, 0x00, 0x00, 0x00, 0x00, 0x01, 0x01, 0x00, 0x00, 0x00,
  0x0f, 0x00, 0x00, 0x00, 0x03, 0x00, 0x00, 0x00, 0x0e, 0x00, 0x00, 0x00,
  0x04, 0x00, 0x00, 0x00, 0x01, 0x00, 0x00, 0x00, 0xfe, 0xfc, 0xff, 0xff,
  0x00, 0x00, 0x00, 0x09, 0x01, 0x00, 0x00, 0x00, 0x1a, 0xd3, 0xff, 0xff,
  0x10, 0x00, 0x00, 0x00, 0x10, 0x00, 0x00, 0x00, 0x14, 0x00, 0x00, 0x00,
  0x2c, 0x00, 0x00, 0x00, 0x02, 0x00, 0x00, 0x00, 0x01, 0x00, 0x00, 0x00,
  0x10, 0x00, 0x00, 0x00, 0x15, 0x00, 0x00, 0x00, 0x73, 0x65, 0x71, 0x75,
  0x65, 0x6e, 0x74, 0x69, 0x61, 0x6c, 0x2f, 0x64, 0x65, 0x6e, 0x73, 0x65,
  0x2f, 0x52, 0x65, 0x6c, 0x75, 0x00, 0x00, 0x00, 0x60, 0xd3, 0xff, 0xff,
  0x00, 0x00, 0x0a, 0x00, 0x10, 0x00, 0x04, 0x00, 0x08, 0x00, 0x0c, 0x00,
  0x0a, 0x00, 0x00, 0x00, 0x02, 0x00, 0x00, 0x00, 0x10, 0x00, 0x00, 0x00,
  0x04, 0x00, 0x00, 0x00, 0x01, 0x00, 0x00, 0x00, 0x0e, 0x00, 0x00, 0x00,
  0x02, 0x00, 0x00, 0x00, 0x0d, 0x00, 0x00, 0x00, 0x03, 0x00, 0x00, 0x00,
  0x7a, 0xfd, 0xff, 0xff, 0x00, 0x00, 0x00, 0x16, 0x01, 0x00, 0x00, 0x00,
  0x96, 0xd3, 0xff, 0xff, 0x10, 0x00, 0x00, 0x00, 0x0f, 0x00, 0x00, 0x00,
  0x14, 0x00, 0x00, 0x00, 0x30, 0x00, 0x00, 0x00, 0x02, 0x00, 0x00, 0x00,
  0x01, 0x00, 0x00, 0x00, 0x70, 0x00, 0x00, 0x00, 0x1a, 0x00, 0x00, 0x00,
  0x73, 0x65, 0x71, 0x75, 0x65, 0x6e, 0x74, 0x69, 0x61, 0x6c, 0x2f, 0x66,
  0x6c, 0x61, 0x74, 0x74, 0x65, 0x6e, 0x2f, 0x52, 0x65, 0x73, 0x68, 0x61,
  0x70, 0x65, 0x00, 0x00, 0x88, 0xd3, 0xff, 0xff, 0xe2, 0xfe, 0xff, 0xff,
  0x00, 0x00, 0x00, 0x05, 0x01, 0x00, 0x00, 0x00, 0x38, 0x00, 0x00, 0x00,
  0x2c, 0x00, 0x00, 0x00, 0x14, 0x00, 0x00, 0x00, 0x00, 0x00, 0x0e, 0x00,
  0x14, 0x00, 0x00, 0x00, 0x10, 0x00, 0x0c, 0x00, 0x08, 0x00, 0x04, 0x00,
  0x0e, 0x00, 0x00, 0x00, 0x03, 0x00, 0x00, 0x00, 0x01, 0x00, 0x00, 0x00,
  0x03, 0x00, 0x00, 0x00, 0x01, 0x00, 0x00, 0x00, 0x01, 0x00, 0x00, 0x00,
  0x0d, 0x00, 0x00, 0x00, 0x01, 0x00, 0x00, 0x00, 0x0c, 0x00, 0x00, 0x00,
  0x26, 0xd4, 0xff, 0xff, 0x10, 0x00, 0x00, 0x00, 0x0e, 0x00, 0x00, 0x00,
  0x1c, 0x00, 0x00, 0x00, 0x40, 0x00, 0x00, 0x00, 0x04, 0x00, 0x00, 0x00,
  0x01, 0x00, 0x00, 0x00, 0x07, 0x00, 0x00, 0x00, 0x01, 0x00, 0x00, 0x00,
  0x10, 0x00, 0x00, 0x00, 0x22, 0x00, 0x00, 0x00, 0x73, 0x65, 0x71, 0x75,
  0x65, 0x6e, 0x74, 0x69, 0x61, 0x6c, 0x2f, 0x6d, 0x61, 0x78, 0x5f, 0x70,
  0x6f, 0x6f, 0x6c, 0x69, 0x6e, 0x67, 0x32, 0x64, 0x5f, 0x31, 0x2f, 0x4d,
  0x61, 0x78, 0x50, 0x6f, 0x6f, 0x6c, 0x00, 0x00, 0x28, 0xd4, 0xff, 0xff,
  0xc2, 0xfe, 0xff, 0xff, 0x00, 0x00, 0x00, 0x01, 0x24, 0x00, 0x00, 0x00,
  0x18, 0x00, 0x00, 0x00, 0x04, 0x00, 0x00, 0x00, 0xb4, 0xfe, 0xff, 0xff,
  0x01, 0x00, 0x00, 0x00, 0x01, 0x00, 0x00, 0x00, 0x00, 0x00, 0x00, 0x01,
  0x01, 0x00, 0x00, 0x00, 0x0c, 0x00, 0x00, 0x00, 0x03, 0x00, 0x00, 0x00,
  0x0b, 0x00, 0x00, 0x00, 0x07, 0x00, 0x00, 0x00, 0x09, 0x00, 0x00, 0x00,
  0xb6, 0xd4, 0xff, 0xff, 0x10, 0x00, 0x00, 0x00, 0x0d, 0x00, 0x00, 0x00,
  0x1c, 0x00, 0x00, 0x00, 0x2c, 0x00, 0x00, 0x00, 0x04, 0x00, 0x00, 0x00,
  0x01, 0x00, 0x00, 0x00, 0x15, 0x00, 0x00, 0x00, 0x01, 0x00, 0x00, 0x00,
  0x10, 0x00, 0x00, 0x00, 0x0c, 0x00, 0x00, 0x00, 0x74, 0x66, 0x6c, 0x2e,
  0x63, 0x6f, 0x6e, 0x76, 0x5f, 0x32, 0x64, 0x31, 0x00, 0x00, 0x00, 0x00,
  0xfc, 0xd4, 0xff, 0xff, 0x00, 0x00, 0x0e, 0x00, 0x1a, 0x00, 0x08, 0x00,
  0x0c, 0x00, 0x10, 0x00, 0x07, 0x00, 0x14, 0x00, 0x0e, 0x00, 0x00, 0x00,
  0x00, 0x00, 0x00, 0x05, 0x01, 0x00, 0x00, 0x00, 0x3c, 0x00, 0x00, 0x00,
  0x30, 0x00, 0x00, 0x00, 0x14, 0x00, 0x00, 0x00, 0x00, 0x00, 0x0e, 0x00,
  0x18, 0x00, 0x17, 0x00, 0x10, 0x00, 0x0c, 0x00, 0x08, 0x00, 0x04, 0x00,
  0x0e, 0x00, 0x00, 0x00, 0x03, 0x00, 0x00, 0x00, 0x03, 0x00, 0x00, 0x00,
  0x03, 0x00, 0x00, 0x00, 0x03, 0x00, 0x00, 0x00, 0x00, 0x00, 0x00, 0x01,
  0x01, 0x00, 0x00, 0x00, 0x0b, 0x00, 0x00, 0x00, 0x01, 0x00, 0x00, 0x00,
  0x0a, 0x00, 0x00, 0x00, 0x46, 0xff, 0xff, 0xff, 0x00, 0x00, 0x00, 0x11,
  0x01, 0x00, 0x00, 0x00, 0x62, 0xd5, 0xff, 0xff, 0x10, 0x00, 0x00, 0x00,
  0x0c, 0x00, 0x00, 0x00, 0x1c, 0x00, 0x00, 0x00, 0x40, 0x00, 0x00, 0x00,
  0x04, 0x00, 0x00, 0x00, 0x01, 0x00, 0x00, 0x00, 0x15, 0x00, 0x00, 0x00,
  0x01, 0x00, 0x00, 0x00, 0x08, 0x00, 0x00, 0x00, 0x20, 0x00, 0x00, 0x00,
  0x73, 0x65, 0x71, 0x75, 0x65, 0x6e, 0x74, 0x69, 0x61, 0x6c, 0x2f, 0x6d,
  0x61, 0x78, 0x5f, 0x70, 0x6f, 0x6f, 0x6c, 0x69, 0x6e, 0x67, 0x32, 0x64,
  0x2f, 0x4d, 0x61, 0x78, 0x50, 0x6f, 0x6f, 0x6c, 0x00, 0x00, 0x00, 0x00,
  0xbc, 0xd5, 0xff, 0xff, 0x00, 0x00, 0x0e, 0x00, 0x14, 0x00, 0x00, 0x00,
  0x08, 0x00, 0x0c, 0x00, 0x07, 0x00, 0x10, 0x00, 0x0e, 0x00, 0x00, 0x00,
  0x00, 0x00, 0x00, 0x01, 0x30, 0x00, 0x00, 0x00, 0x24, 0x00, 0x00, 0x00,
  0x10, 0x00, 0x00, 0x00, 0x0c, 0x00, 0x10, 0x00, 0x00, 0x00, 0x04, 0x00,
  0x08, 0x00, 0x0f, 0x00, 0x0c, 0x00, 0x00, 0x00, 0x01, 0x00, 0x00, 0x00,
  0x01, 0x00, 0x00, 0x00, 0x00, 0x00, 0x00, 0x01, 0x01, 0x00, 0x00, 0x00,
  0x0a, 0x00, 0x00, 0x00, 0x03, 0x00, 0x00, 0x00, 0x00, 0x00, 0x00, 0x00,
  0x06, 0x00, 0x00, 0x00, 0x08, 0x00, 0x00, 0x00, 0x00, 0x00, 0x0a, 0x00,
  0x0c, 0x00, 0x07, 0x00, 0x00, 0x00, 0x08, 0x00, 0x0a, 0x00, 0x00, 0x00,
  0x00, 0x00, 0x00, 0x03, 0x01, 0x00, 0x00, 0x00, 0x26, 0xd6, 0xff, 0xff,
  0x10, 0x00, 0x00, 0x00, 0x0b, 0x00, 0x00, 0x00, 0x1c, 0x00, 0x00, 0x00,
  0x28, 0x00, 0x00, 0x00, 0x04, 0x00, 0x00, 0x00, 0x01, 0x00, 0x00, 0x00,
  0x40, 0x00, 0x00, 0x00, 0x03, 0x00, 0x00, 0x00, 0x08, 0x00, 0x00, 0x00,
  0x0b, 0x00, 0x00, 0x00, 0x74, 0x66, 0x6c, 0x2e, 0x63, 0x6f, 0x6e, 0x76,
  0x5f, 0x32, 0x64, 0x00, 0x10, 0xd6, 0xff, 0xff, 0x06, 0xd7, 0xff, 0xff,
  0x04, 0x00, 0x00, 0x00, 0x40, 0x00, 0x00, 0x00, 0xb2, 0x0d, 0x65, 0xbf,
  0x4a, 0x71, 0x42, 0x3f, 0x60, 0x06, 0xeb, 0xbb, 0xd9, 0x7d, 0x5d, 0xbf,
  0xb3, 0x7f, 0x42, 0x3d, 0x23, 0x3f, 0xed, 0xbc, 0x40, 0xcb, 0x0c, 0x3e,
  0xb1, 0xa9, 0x90, 0xbd, 0xf6, 0xc0, 0x89, 0xbd, 0x19, 0xe9, 0x8d, 0x3c,
  0x6d, 0xbc, 0xb6, 0x3c, 0x90, 0x1e, 0x81, 0xbc, 0xb8, 0xc8, 0xc6, 0x3f,
  0xfc, 0x5e, 0x4d, 0x3f, 0x09, 0x95, 0x8d, 0xbc, 0x44, 0xc4, 0xb1, 0xbb,
  0xae, 0xd6, 0xff, 0xff, 0x10, 0x00, 0x00, 0x00, 0x0a, 0x00, 0x00, 0x00,
  0x10, 0x00, 0x00, 0x00, 0x20, 0x00, 0x00, 0x00, 0x01, 0x00, 0x00, 0x00,
  0x10, 0x00, 0x00, 0x00, 0x0d, 0x00, 0x00, 0x00, 0x73, 0x74, 0x64, 0x2e,
  0x63, 0x6f, 0x6e, 0x73, 0x74, 0x61, 0x6e, 0x74, 0x31, 0x00, 0x00, 0x00,
  0x90, 0xd6, 0xff, 0xff, 0x86, 0xd7, 0xff, 0xff, 0x04, 0x00, 0x00, 0x00,
  0x20, 0x00, 0x00, 0x00, 0xdc, 0x5f, 0x13, 0xbf, 0x2e, 0x3b, 0x00, 0xbe,
  0xb7, 0x67, 0x9f, 0xbd, 0xc6, 0x8f, 0x33, 0xbe, 0x7c, 0xcf, 0xb7, 0xbe,
  0x2f, 0xc8, 0x23, 0xbf, 0xd0, 0x34, 0x1d, 0xbe, 0x60, 0x2c, 0xc5, 0xbe,
  0x0e, 0xd7, 0xff, 0xff, 0x10, 0x00, 0x00, 0x00, 0x09, 0x00, 0x00, 0x00,
  0x10, 0x00, 0x00, 0x00, 0x20, 0x00, 0x00, 0x00, 0x01, 0x00, 0x00, 0x00,
  0x08, 0x00, 0x00, 0x00, 0x0c, 0x00, 0x00, 0x00, 0x73, 0x74, 0x64, 0x2e,
  0x63, 0x6f, 0x6e, 0x73, 0x74, 0x61, 0x6e, 0x74, 0x00, 0x00, 0x00, 0x00,
  0xf0, 0xd6, 0xff, 0xff, 0xe6, 0xd7, 0xff, 0xff, 0x04, 0x00, 0x00, 0x00,
  0x00, 0x08, 0x00, 0x00, 0x56, 0xb5, 0x3c, 0xbd, 0xf7, 0x34, 0x43, 0x3d,
  0x56, 0xb4, 0xae, 0xbc, 0x25, 0xe9, 0x9e, 0xbd, 0xae, 0x2c, 0x31, 0x3e,
  0x8c, 0x51, 0xe3, 0x3d, 0x68, 0x44, 0x7d, 0xbe, 0xe5, 0x47, 0x8e, 0x3e,
  0x73, 0x77, 0xb9, 0x3d, 0x4a, 0x7a, 0x4a, 0xbe, 0x29, 0x9d, 0x85, 0xbe,
  0x38, 0x1f, 0xd0, 0x3e, 0xe2, 0xaf, 0xa1, 0xbc, 0xb5, 0xc7, 0x2e, 0x3e,
  0xe5, 0x6c, 0x44, 0xbe, 0x1a, 0x37, 0xa5, 0x3e, 0x3a, 0x7f, 0x08, 0xbe,
  0xb8, 0x3b, 0x87, 0xbe, 0xd0, 0x88, 0xb5, 0xbe, 0xe0, 0x25, 0xd0, 0x3d,
  0xc9, 0x23, 0x73, 0xbe, 0x3d, 0x83, 0x52, 0xbd, 0xd1, 0x4e, 0x12, 0xbd,
  0x08, 0xe1, 0x13, 0x3e, 0xfb, 0xf3, 0xa0, 0xbe, 0xc1, 0x85, 0xbc, 0xbd,
  0xb4, 0x0a, 0xb0, 0xbe, 0xd3, 0x17, 0x00, 0xbf, 0xc8, 0xa1, 0x67, 0xbe,
  0xed, 0x19, 0x10, 0xbe, 0xe6, 0x13, 0xd2, 0x3a, 0x0c, 0xb7, 0xa3, 0xbe,
  0xac, 0xc4, 0xdd, 0xbe, 0x90, 0x0c, 0xb7, 0x3d, 0x54, 0x4a, 0xb5, 0xbe,
  0x32, 0x7c, 0x96, 0xbe, 0x55, 0x6b, 0x65, 0xbe, 0x0d, 0xcf, 0x56, 0xbe,
  0xb4, 0xcd, 0x06, 0x3c, 0xf0, 0xa7, 0x93, 0xbe, 0x05, 0x2e, 0x12, 0xbe,
  0x06, 0xc7, 0x65, 0x3e, 0xb4, 0xda, 0x68, 0x3e, 0x8e, 0xa6, 0xee, 0xbc,
  0x8d, 0xe7, 0x1a, 0xbe, 0x13, 0x44, 0x6d, 0xbe, 0xb9, 0xf8, 0x27, 0x3e,
  0x7f, 0xeb, 0x17, 0xbc, 0x14, 0x47, 0x13, 0xbe, 0x65, 0x2e, 0x8a, 0x3d,
  0x88, 0x60, 0x5e, 0x3d, 0x6c, 0xaa, 0x44, 0xbd, 0x9b, 0x33, 0xca, 0xbd,
  0xcd, 0x18, 0x22, 0xbe, 0x17, 0xc6, 0xaa, 0x3d, 0xbd, 0x95, 0x5a, 0xbe,
  0x30, 0x54, 0x78, 0x3e, 0xe5, 0xaf, 0xec, 0xbd, 0x8a, 0xa3, 0x3b, 0xbe,
  0xae, 0xa2, 0x5f, 0xbd, 0xfa, 0x50, 0x7f, 0x3e, 0x34, 0x85, 0xbf, 0x3e,
  0x18, 0xc5, 0x1d, 0xbe, 0x5f, 0x8d, 0x9e, 0x3d, 0xba, 0x77, 0x9e, 0xbe,
  0x25, 0x78, 0xe5, 0xbd, 0xbc, 0x98, 0x0d, 0xbf, 0x46, 0xf3, 0x1c, 0xbf,
  0x6d, 0xd2, 0x80, 0xbe, 0x66, 0xa0, 0x21, 0xbe, 0x47, 0x9a, 0xbc, 0xbe,
  0x1b, 0x78, 0xc2, 0xbe, 0x88, 0x8a, 0xef, 0xbd, 0xd1, 0xbd, 0xe6, 0x3e,
  0x37, 0x88, 0xe0, 0x3e, 0xcf, 0x6b, 0xb5, 0x3e, 0x15, 0x54, 0x24, 0xbd,
  0xa5, 0xb6, 0x0c, 0x3d, 0x24, 0xdb, 0x47, 0x3e, 0x44, 0xc6, 0x99, 0x3d,
  0xf9, 0xfa, 0x48, 0xbd, 0x15, 0x63, 0xf9, 0xbc, 0xa1, 0x09, 0xac, 0x3d,
  0x37, 0xe3, 0x99, 0xbe, 0x95, 0xd0, 0xfd, 0xbc, 0x66, 0x8a, 0xdb, 0xbc,
  0xa3, 0xa7, 0x3f, 0xbe, 0xd9, 0x9f, 0x3f, 0xbe, 0xe4, 0x55, 0xaa, 0x3e,
  0xc4, 0xdf, 0x8f, 0xbb, 0xe6, 0xb3, 0xc0, 0x3b, 0x05, 0x99, 0x96, 0x3e,
  0x7e, 0x8b, 0xfb, 0xba, 0x88, 0xab, 0x8d, 0x3b, 0x26, 0x06, 0x40, 0x3d,
  0xbf, 0x4f, 0x7f, 0x3e, 0x82, 0x66, 0xb6, 0x3d, 0xfd, 0x40, 0xab, 0xbd,
  0x07, 0xbf, 0x82, 0xbe, 0xbc, 0xe7, 0xc0, 0x3d, 0xd9, 0x4a, 0x40, 0x3e,
  0x38, 0x1f, 0x35, 0x3d, 0x65, 0xb4, 0xd8, 0xbd, 0x95, 0x04, 0xe6, 0xbd,
  0xa7, 0xfd, 0x5a, 0x3e, 0x71, 0x3f, 0x7a, 0xbe, 0x7b, 0x5a, 0xec, 0xbe,
  0xf8, 0x9a, 0x9a, 0x3e, 0xe4, 0xd4, 0x07, 0xbd, 0xfe, 0x96, 0xcc, 0x3d,
  0xf2, 0x41, 0x48, 0xbe, 0x12, 0xa8, 0xd2, 0x3e, 0x42, 0x38, 0x90, 0x3d,
  0x5c, 0xb8, 0x98, 0xbe, 0xe5, 0x82, 0xec, 0xbe, 0xfa, 0x93, 0x84, 0x3e,
  0x6d, 0xd8, 0x15, 0xbe, 0x32, 0x3f, 0x0c, 0xbe, 0xa9, 0xb2, 0x68, 0xbe,
  0x2a, 0x88, 0x08, 0x3f, 0xd0, 0x3b, 0xb7, 0xbe, 0x39, 0x7f, 0xe5, 0xbd,
  0xbf, 0x0a, 0x81, 0xbe, 0x32, 0xdc, 0x9f, 0xbe, 0x56, 0x11, 0x97, 0xbe,
  0x7a, 0xfd, 0x6a, 0xbe, 0x7f, 0x6f, 0x01, 0xbe, 0x55, 0xcb, 0x22, 0xbd,
  0xe3, 0xfc, 0x93, 0xbd, 0x72, 0xe6, 0xf5, 0x3e, 0x9c, 0xb4, 0x65, 0x3b,
  0x9e, 0x62, 0x4e, 0x3d, 0x46, 0xd5, 0xc2, 0x3d, 0x47, 0xc3, 0xbc, 0xbd,
  0x3b, 0x1b, 0xb6, 0x3e, 0x89, 0x5e, 0x77, 0xbe, 0x5a, 0x5b, 0x0c, 0xbe,
  0x87, 0x90, 0x11, 0xbd, 0x82, 0x38, 0x4e, 0xbe, 0x22, 0x76, 0x45, 0xbd,
  0x24, 0x33, 0xc1, 0xbd, 0x55, 0x69, 0xd3, 0xbc, 0x2f, 0x8b, 0x38, 0xbe,
  0x4c, 0x08, 0x1e, 0xbe, 0x4b, 0x8f, 0x18, 0xbe, 0x4b, 0xd8, 0xe1, 0xbd,
  0xfa, 0xeb, 0x71, 0x3e, 0x0f, 0x7e, 0x54, 0xbe, 0xa2, 0x7f, 0xe6, 0x3c,
  0x7d, 0xe7, 0x22, 0x3b, 0x9e, 0x66, 0x2b, 0xbe, 0x80, 0x7c, 0x1a, 0x3e,
  0x3a, 0x88, 0x15, 0x3e, 0x3e, 0xbf, 0x29, 0xbe, 0xc5, 0x64, 0x1e, 0xbe,
  0xe7, 0x18, 0x60, 0xbe, 0xab, 0xb0, 0x0b, 0x3e, 0x7f, 0x01, 0xc3, 0x3b,
  0x57, 0xd7, 0xff, 0xbd, 0xc7, 0x74, 0xaf, 0xbd, 0xe1, 0xc7, 0xf0, 0xbd,
  0xca, 0x2f, 0xb2, 0x3d, 0x77, 0xeb, 0x44, 0x3e, 0x4b, 0xb9, 0xd8, 0xbd,
  0x2c, 0x1f, 0xb2, 0xbe, 0x24, 0x5b, 0x65, 0x3d, 0x5e, 0x46, 0x5a, 0xbe,
  0x24, 0xca, 0xf0, 0xbd, 0x3c, 0x7a, 0x85, 0xbc, 0x2d, 0x6b, 0x09, 0x3d,
  0xfe, 0x37, 0x0e, 0x3e, 0xff, 0x47, 0x27, 0xbe, 0x52, 0x8c, 0xab, 0xbe,
  0x53, 0x40, 0x63, 0xbd, 0x15, 0xf8, 0x86, 0x3c, 0x8a, 0xa7, 0x54, 0xbe,
  0xd6, 0x2c, 0x4b, 0x3d, 0x86, 0x6f, 0xc0, 0xbd, 0x33, 0x99, 0x15, 0x3d,
  0x2b, 0x07, 0x62, 0xbd, 0xdc, 0xb8, 0xa0, 0xbd, 0x66, 0x89, 0xa5, 0xbd,
  0x69, 0x9c, 0x5b, 0xbe, 0x6d, 0x69, 0xac, 0x3c, 0xc2, 0x8d, 0x3a, 0x3e,
  0x50, 0x26, 0x6e, 0xbe, 0x58, 0x21, 0x9e, 0x3e, 0x95, 0x2b, 0x69, 0xbd,
  0x9d, 0x37, 0xbb, 0xbe, 0x4c, 0x96, 0xb1, 0xbd, 0xb6, 0x8d, 0x28, 0xbe,
  0xb7, 0x6e, 0x55, 0xbe, 0xfa, 0x63, 0xb1, 0xbe, 0xc3, 0x3e, 0x4e, 0xbc,
  0x00, 0x35, 0x17, 0x3f, 0x12, 0x54, 0xbd, 0x3d, 0x58, 0x7a, 0x30, 0x3e,
  0x02, 0xd8, 0xb9, 0xbe, 0xd3, 0xf2, 0xd2, 0x3e, 0x72, 0x6c, 0x83, 0xbd,
  0x14, 0x59, 0xa4, 0xbe, 0xdb, 0xf0, 0x3b, 0x3e, 0x9f, 0xe3, 0xe5, 0xbc,
  0x9d, 0xeb, 0x47, 0x3e, 0x87, 0x24, 0xc1, 0xbd, 0xe2, 0x5f, 0xc1, 0xbe,
  0xbc, 0x67, 0x9a, 0x3d, 0x03, 0x7b, 0x17, 0x3e, 0x47, 0x50, 0xcc, 0xbe,
  0x06, 0x5a, 0x4f, 0xbe, 0x84, 0x33, 0xcd, 0x3e, 0xa1, 0xde, 0xac, 0x3d,
  0x82, 0x3b, 0xc2, 0x3b, 0x7c, 0xd8, 0x9d, 0xbe, 0x44, 0x4f, 0x1b, 0x3e,
  0x55, 0xfc, 0xea, 0x3d, 0xaf, 0x71, 0x8b, 0xbe, 0xdd, 0xba, 0x4f, 0x3d,
  0x45, 0xc9, 0x83, 0x3d, 0x0b, 0x63, 0xed, 0x3d, 0x21, 0x06, 0x5c, 0x3d,
  0xf9, 0xd9, 0x81, 0xbe, 0xc4, 0xb4, 0xc6, 0x3d, 0xeb, 0xa8, 0xe9, 0x3d,
  0xb6, 0x9d, 0xbb, 0xbc, 0xf6, 0x6a, 0xc5, 0xbe, 0x28, 0x7d, 0x18, 0x3e,
  0xfa, 0xeb, 0x36, 0x3e, 0x4d, 0x5d, 0xac, 0xbc, 0x40, 0xb2, 0x96, 0x3d,
  0xfd, 0x4a, 0xc7, 0xbe, 0xa0, 0xa2, 0x2e, 0x3e, 0x7a, 0x4c, 0x21, 0x3d,
  0x24, 0x9c, 0xc0, 0x3d, 0xfe, 0x97, 0xf5, 0xbe, 0x6c, 0xd6, 0x54, 0xbe,
  0xd8, 0xf3, 0x0a, 0x3d, 0x1b, 0xb1, 0x90, 0xbc, 0x4b, 0x63, 0x27, 0xbe,
  0x4e, 0xe4, 0x38, 0x3e, 0x2c, 0x5a, 0x62, 0x3d, 0x5d, 0xa2, 0xb5, 0xbd,
  0x06, 0xa3, 0x13, 0xbe, 0xff, 0x77, 0x4e, 0x3e, 0xd6, 0xc0, 0x4f, 0x3e,
  0xfd, 0x6a, 0x3c, 0xbd, 0xf5, 0x43, 0x89, 0x3d, 0x0e, 0xa9, 0x08, 0x3f,
  0x1e, 0x9a, 0x75, 0xbc, 0x78, 0x3d, 0x10, 0xbe, 0x95, 0x12, 0xde, 0x3d,
  0x44, 0x99, 0xac, 0x3e, 0x5f, 0x37, 0x9d, 0xbd, 0x80, 0x25, 0x34, 0xbe,
  0x55, 0xdc, 0x20, 0xbe, 0xf0, 0xc5, 0xdd, 0x3e, 0x84, 0x9e, 0x03, 0x3e,
  0xeb, 0x0d, 0x81, 0x3e, 0xd8, 0xa2, 0x0b, 0xbd, 0xfd, 0xab, 0x97, 0xbd,
  0xb0, 0x07, 0xfd, 0xbd, 0x9f, 0xae, 0x4a, 0x3e, 0xdd, 0x2f, 0x79, 0x3e,
  0x3e, 0x1e, 0xfd, 0x3d, 0x7a, 0x75, 0x3d, 0xbc, 0x53, 0x67, 0x5e, 0x3d,
  0xba, 0x04, 0x11, 0x3b, 0xf4, 0x30, 0x79, 0x3e, 0x96, 0x18, 0xe9, 0xbd,
  0xe6, 0xdd, 0xdf, 0xbd, 0x92, 0x07, 0xe7, 0xbd, 0x39, 0x02, 0x84, 0xbe,
  0x9c, 0xe8, 0x6e, 0xbd, 0x01, 0x79, 0xa2, 0x3c, 0xa1, 0xc9, 0x15, 0x3d,
  0xad, 0xf1, 0x8d, 0xbe, 0x57, 0x3e, 0xb1, 0x3c, 0x9d, 0x14, 0xf2, 0x3d,
  0x72, 0x7b, 0x0d, 0x3e, 0x84, 0xb0, 0x3a, 0x3e, 0x6c, 0x82, 0x36, 0x3e,
  0x05, 0xab, 0x48, 0xbe, 0xee, 0xb1, 0x0e, 0xbe, 0x6a, 0x29, 0x99, 0x3e,
  0x9b, 0xd3, 0x88, 0x3c, 0x21, 0x8e, 0x3f, 0xbd, 0xde, 0x00, 0x25, 0xbe,
  0x13, 0x4d, 0x38, 0x3d, 0xfc, 0x72, 0x96, 0xbd, 0xdd, 0xbb, 0x97, 0x3e,
  0xff, 0xb4, 0x2d, 0x3f, 0x64, 0xd7, 0x0e, 0x3e, 0x2c, 0x6f, 0x6b, 0xbd,
  0xda, 0xb9, 0x71, 0xbe, 0x49, 0x60, 0x86, 0x3e, 0xc7, 0x32, 0xfc, 0xbd,
  0xe4, 0x9b, 0x24, 0xbe, 0xea, 0xab, 0x99, 0xbe, 0x84, 0x13, 0xd9, 0x3e,
  0xac, 0xb8, 0x4d, 0x3d, 0xbf, 0xb0, 0xbb, 0xbe, 0x9b, 0x48, 0x26, 0xbd,
  0x92, 0xbf, 0x2f, 0x3d, 0xc2, 0x1a, 0xaa, 0xbd, 0x0f, 0x24, 0x85, 0xbe,
  0x97, 0xee, 0x5e, 0x3e, 0x88, 0x9f, 0xeb, 0x3e, 0x91, 0x95, 0x82, 0x3e,
  0x2c, 0x0e, 0x48, 0x3b, 0x84, 0x5b, 0x2e, 0xbe, 0xc3, 0x66, 0x28, 0x3d,
  0xd0, 0x9d, 0x30, 0xbd, 0x95, 0xbf, 0x75, 0xbe, 0xc2, 0x25, 0xb5, 0x3b,
  0xc0, 0x9e, 0x7a, 0x3d, 0xfb, 0x4f, 0x1d, 0x3e, 0x84, 0xe5, 0x01, 0x3e,
  0xe8, 0xba, 0x1d, 0xbe, 0xae, 0xf6, 0x40, 0xbc, 0xd6, 0xda, 0x09, 0x3d,
  0x4b, 0x74, 0xfa, 0xbd, 0x8f, 0x88, 0x35, 0x3d, 0x40, 0x3b, 0xf4, 0x3e,
  0x05, 0x38, 0xcd, 0x3d, 0xbf, 0xc3, 0xde, 0x3d, 0x9c, 0xa0, 0x73, 0xbe,
  0x6a, 0xe6, 0x5b, 0x3c, 0x7e, 0xf7, 0x87, 0xbd, 0x04, 0xcb, 0x5b, 0xbe,
  0x63, 0x3c, 0xa4, 0x3e, 0x3f, 0xed, 0x03, 0x3f, 0xc1, 0xea, 0x07, 0x3d,
  0x33, 0x74, 0x05, 0x3d, 0x55, 0xdd, 0x88, 0xbe, 0xb9, 0xa6, 0x40, 0x3e,
  0x2c, 0xcd, 0xf2, 0x3d, 0x3b, 0x2e, 0x8d, 0xbe, 0xc5, 0x1e, 0x24, 0x3e,
  0xac, 0xa5, 0x6c, 0x3c, 0xed, 0x03, 0xb8, 0x3d, 0x9e, 0x07, 0xa3, 0x3d,
  0x49, 0xe1, 0x86, 0xbe, 0xb0, 0xd9, 0x90, 0x3e, 0x39, 0x02, 0x8f, 0x3d,
  0x9a, 0xd7, 0x9a, 0xbe, 0x23, 0x2c, 0x4c, 0xbd, 0x1b, 0x57, 0xd7, 0x3e,
  0xc2, 0x42, 0x96, 0x3d, 0x34, 0x4f, 0x29, 0xbe, 0xb3, 0xfe, 0x84, 0xbe,
  0x88, 0x03, 0xa4, 0x3d, 0x19, 0xda, 0x42, 0x3e, 0x7a, 0xe2, 0x3e, 0x3e,
  0x1c, 0xb1, 0xd1, 0xbd, 0x48, 0xbb, 0x5d, 0x3e, 0x06, 0xd0, 0xe1, 0xbe,
  0xb2, 0x42, 0xfb, 0xbd, 0x7e, 0x75, 0xa1, 0x3c, 0x3b, 0x87, 0x27, 0xbe,
  0x80, 0xdd, 0xcb, 0xbe, 0xb3, 0x2b, 0x2a, 0x3d, 0x54, 0x75, 0x41, 0xbf,
  0x34, 0x27, 0x49, 0x3e, 0x31, 0xf6, 0xab, 0xbe, 0xf8, 0x24, 0x37, 0xbd,
  0x72, 0x9a, 0x23, 0x3e, 0x4c, 0x03, 0x2c, 0x3d, 0x9d, 0x87, 0x1c, 0x3e,
  0x0d, 0x46, 0x15, 0xbe, 0xb5, 0xce, 0x47, 0x3e, 0xaa, 0x25, 0xf0, 0x3e,
  0x89, 0xe3, 0x86, 0xbe, 0xbe, 0xf1, 0x78, 0xbe, 0xb5, 0x79, 0x13, 0xbe,
  0x8a, 0x34, 0xd1, 0x3e, 0x99, 0x84, 0xe4, 0xbe, 0x97, 0x4d, 0xae, 0xbd,
  0xdb, 0xee, 0xb9, 0xbe, 0x76, 0x71, 0x13, 0x3f, 0x49, 0x80, 0xb7, 0xbc,
  0xe6, 0x55, 0xb7, 0xbe, 0x77, 0xc8, 0x2f, 0x3e, 0xb5, 0xe8, 0x3c, 0x3e,
  0x71, 0x2c, 0xfd, 0xbd, 0x36, 0xf4, 0x3f, 0xbe, 0xf0, 0xa8, 0xbd, 0xbb,
  0x05, 0xed, 0x6d, 0xbe, 0x51, 0xf0, 0x97, 0x3c, 0xca, 0x2e, 0x4b, 0xbd,
  0xe7, 0xcb, 0x98, 0xbe, 0x7c, 0xd8, 0x38, 0x3d, 0x7c, 0xb8, 0xea, 0xbd,
  0x12, 0xd2, 0xcd, 0xba, 0x4d, 0xe7, 0x58, 0xbe, 0xb3, 0x8b, 0x78, 0xbd,
  0x66, 0x62, 0xb4, 0x3d, 0xbb, 0x40, 0xea, 0xbd, 0x1f, 0x22, 0x35, 0xbe,
  0xd1, 0xef, 0xb5, 0x3d, 0xe1, 0x19, 0x28, 0x3e, 0x15, 0x1c, 0x99, 0xbb,
  0xaf, 0x5b, 0x41, 0x3d, 0xef, 0x51, 0x8b, 0x3d, 0x56, 0x04, 0x35, 0x3d,
  0xc9, 0x9c, 0x93, 0x3a, 0xd3, 0xe1, 0x52, 0xbe, 0x82, 0x22, 0x87, 0xbd,
  0x4e, 0xfa, 0xbc, 0x3d, 0x5e, 0x7b, 0x3c, 0xbe, 0xd1, 0x73, 0xa5, 0xbe,
  0xfb, 0xbe, 0xc0, 0x3d, 0x34, 0xc9, 0x9d, 0xbe, 0x16, 0xdb, 0x1f, 0xbe,
  0x61, 0xfc, 0x2e, 0xbd, 0xb1, 0xd6, 0xd4, 0xbe, 0x83, 0xbd, 0xf3, 0xbd,
  0xa7, 0xbd, 0xdd, 0xbd, 0x7d, 0xe0, 0xf0, 0xbc, 0x29, 0x9b, 0xb4, 0x3e,
  0x07, 0x85, 0x82, 0x3d, 0xe6, 0x71, 0xa7, 0xbc, 0x60, 0x66, 0x4c, 0xbe,
  0x66, 0x05, 0x87, 0x3e, 0x67, 0x4f, 0x84, 0xbd, 0x68, 0x9a, 0xf8, 0xbd,
  0x9b, 0xf3, 0x1e, 0xbe, 0x4b, 0x40, 0xb1, 0x3c, 0x94, 0x20, 0x74, 0x3e,
  0x2e, 0x4f, 0x15, 0x3e, 0x5c, 0x83, 0xae, 0xbe, 0x42, 0xd3, 0x72, 0x3e,
  0xe0, 0x76, 0xec, 0xb9, 0xf6, 0x2c, 0xd2, 0xbe, 0x84, 0x3a, 0x58, 0x3c,
  0x93, 0xcd, 0xf1, 0xbd, 0x02, 0x53, 0x7a, 0xbe, 0x80, 0xc9, 0x87, 0xbe,
  0x2f, 0xa1, 0x8b, 0xbe, 0x71, 0xa6, 0xee, 0xbe, 0x92, 0x54, 0xc7, 0xbe,
  0xd1, 0xb2, 0xa2, 0xbe, 0x21, 0xda, 0x54, 0xbd, 0xb9, 0xd7, 0x97, 0x3d,
  0xc4, 0x04, 0x33, 0x3d, 0x8f, 0x5c, 0x51, 0xbe, 0x26, 0xb1, 0x39, 0xbe,
  0x2e, 0x02, 0x66, 0xbe, 0x43, 0xc7, 0x14, 0xbe, 0xf9, 0xbf, 0xa6, 0xbd,
  0x99, 0xc4, 0x81, 0xbe, 0xac, 0xa7, 0xfe, 0x3d, 0x58, 0xcb, 0x1d, 0x3c,
  0xd2, 0x0b, 0x82, 0xbd, 0x6f, 0x0a, 0xdb, 0xbd, 0x74, 0xd4, 0x3a, 0x3e,
  0x94, 0x5f, 0x44, 0xbe, 0xb8, 0x86, 0x6f, 0xbd, 0x45, 0x34, 0xbf, 0x3d,
  0x3b, 0x16, 0xa6, 0x3e, 0x1a, 0x82, 0xb9, 0x3d, 0xa5, 0x72, 0x44, 0xbd,
  0xc5, 0xca, 0xb2, 0x3d, 0x4e, 0x94, 0x5c, 0x3e, 0x3b, 0x49, 0x8f, 0xbe,
  0xb8, 0x75, 0xaf, 0x3c, 0x53, 0x35, 0x87, 0xbe, 0x06, 0xdd, 0xd9, 0xbd,
  0xbf, 0x46, 0xc9, 0xbe, 0xd4, 0xa3, 0x15, 0x3e, 0x73, 0x87, 0x8b, 0xbd,
  0x20, 0x7c, 0x41, 0x3e, 0x96, 0x49, 0x02, 0xbe, 0xf5, 0xd8, 0x22, 0x3e,
  0x11, 0x10, 0x2e, 0xbf, 0x28, 0xd8, 0x86, 0xbd, 0xdc, 0x53, 0xac, 0xbe,
  0xbe, 0x06, 0xed, 0x3c, 0x32, 0xde, 0xf1, 0x3d, 0x2e, 0xf2, 0x23, 0xbe,
  0x4c, 0x9f, 0x7b, 0x3e, 0xb9, 0x37, 0x24, 0xbd, 0x37, 0xf8, 0x78, 0xbe,
  0x6a, 0xe5, 0x45, 0x3e, 0x4e, 0x35, 0x2f, 0xbd, 0x5a, 0x2c, 0x88, 0xbd,
  0x98, 0x85, 0x90, 0xbd, 0xf7, 0x07, 0x44, 0xbc, 0x57, 0x65, 0xd3, 0x3a,
  0x2c, 0x6d, 0x0d, 0xbe, 0x67, 0xee, 0xce, 0xbe, 0x66, 0xa5, 0x83, 0xbe,
  0x6b, 0xf2, 0x25, 0xbe, 0x20, 0x89, 0xff, 0x3c, 0x04, 0xa8, 0x14, 0x3e,
  0x3d, 0xc8, 0x51, 0x3e, 0x0e, 0x25, 0x57, 0xbd, 0x01, 0xd6, 0x6a, 0x3e,
  0xa2, 0xc3, 0x37, 0xbf, 0x63, 0x85, 0x8b, 0x3d, 0x10, 0xc3, 0x19, 0xbe,
  0x17, 0x5c, 0x23, 0x3e, 0x66, 0x6b, 0x84, 0x3c, 0xa0, 0xb0, 0xe0, 0xbd,
  0x98, 0xbf, 0xda, 0xbc, 0x1e, 0x13, 0xaa, 0xbe, 0xf4, 0xc8, 0x3b, 0x3e,
  0xf5, 0x8b, 0x10, 0xbc, 0xf3, 0x80, 0x08, 0x3d, 0xd5, 0x6a, 0x1f, 0xbe,
  0xb8, 0x21, 0xd7, 0xbd, 0x70, 0xde, 0x48, 0x3e, 0xc2, 0xa2, 0x4b, 0x3e,
  0x4e, 0xdf, 0xff, 0xff, 0x10, 0x00, 0x00, 0x00, 0x08, 0x00, 0x00, 0x00,
  0x1c, 0x00, 0x00, 0x00, 0x38, 0x00, 0x00, 0x00, 0x04, 0x00, 0x00, 0x00,
  0x10, 0x00, 0x00, 0x00, 0x04, 0x00, 0x00, 0x00, 0x01, 0x00, 0x00, 0x00,
  0x08, 0x00, 0x00, 0x00, 0x1a, 0x00, 0x00, 0x00, 0x73, 0x65, 0x71, 0x75,
  0x65, 0x6e, 0x74, 0x69, 0x61, 0x6c, 0x2f, 0x63, 0x6f, 0x6e, 0x76, 0x32,
  0x64, 0x5f, 0x31, 0x2f, 0x43, 0x6f, 0x6e, 0x76, 0x32, 0x44, 0x00, 0x00,
  0x48, 0xdf, 0xff, 0xff, 0x3e, 0xe0, 0xff, 0xff, 0x04, 0x00, 0x00, 0x00,
  0x80, 0x01, 0x00, 0x00, 0x16, 0x92, 0x15, 0x3e, 0xde, 0x5c, 0x66, 0x3d,
  0xe5, 0xea, 0xa6, 0xbe, 0xc9, 0xca, 0x92, 0x3d, 0x4c, 0xd9, 0x6b, 0x3e,
  0x32, 0x26, 0x0a, 0x3e, 0x8c, 0xd6, 0x8b, 0x3d, 0xfc, 0x9f, 0xce, 0x3d,
  0xb1, 0xf7, 0xe1, 0xbd, 0xf5, 0xa6, 0x19, 0x3e, 0x28, 0xe0, 0x37, 0x3e,
  0xa8, 0x04, 0x3e, 0x3e, 0x6f, 0xb0, 0x9c, 0x3d, 0x33, 0x45, 0x29, 0x3e,
  0xa1, 0xc7, 0xbd, 0xbe, 0x50, 0x01, 0x5c, 0xbd, 0xfc, 0x3a, 0x5d, 0x3e,
  0x77, 0xf8, 0x31, 0x3f, 0x1f, 0xb3, 0xac, 0x3c, 0xf7, 0x89, 0x41, 0xbe,
  0xfd, 0x4c, 0x23, 0x3f, 0x13, 0x88, 0x59, 0x3d, 0x19, 0x05, 0x47, 0xbe,
  0x7f, 0xb6, 0xbe, 0x3d, 0xa4, 0xfc, 0xff, 0xbc, 0x51, 0xb2, 0x2a, 0x3f,
  0x87, 0x2c, 0x98, 0x3c, 0x5a, 0xf2, 0x0a, 0x3e, 0xc3, 0x47, 0xe5, 0x3d,
  0x94, 0x02, 0x96, 0x3e, 0x7b, 0x4a, 0x9b, 0xbc, 0x5f, 0x15, 0xa9, 0x3e,
  0x04, 0x09, 0x48, 0x3e, 0xa4, 0x73, 0x87, 0x3e, 0x04, 0xfb, 0xbe, 0xbd,
  0x68, 0x59, 0x25, 0x3f, 0x50, 0x9c, 0x84, 0x3b, 0x28, 0x1c, 0xc1, 0xbe,
  0xd5, 0x01, 0x40, 0x3e, 0x08, 0xb1, 0x4e, 0x3d, 0x51, 0x75, 0xb2, 0xbc,
  0x98, 0xd8, 0x30, 0x3e, 0xb4, 0x97, 0xb9, 0xbc, 0x06, 0x08, 0xa3, 0x3e,
  0x87, 0xef, 0xde, 0x3e, 0xfc, 0xf5, 0x9f, 0x3d, 0xaa, 0x7f, 0xb3, 0x3d,
  0xac, 0xe1, 0x4d, 0xbe, 0x50, 0x42, 0x27, 0x3d, 0xd4, 0x4b, 0x0c, 0xbe,
  0xe5, 0xe2, 0xc3, 0xbd, 0x36, 0x24, 0x19, 0xbe, 0x58, 0x95, 0xa8, 0xbd,
  0xad, 0x6d, 0x27, 0x3e, 0x0d, 0x19, 0x54, 0x3d, 0x96, 0xb5, 0x8f, 0x3d,
  0x82, 0xd7, 0x5e, 0x3e, 0x70, 0x9f, 0xa2, 0x3e, 0x56, 0x94, 0x36, 0xbd,
  0x67, 0xb3, 0x5e, 0x3d, 0xbe, 0xa8, 0x76, 0x3e, 0x44, 0x28, 0x50, 0x3e,
  0xa7, 0x84, 0x7d, 0xbe, 0x7b, 0x98, 0x36, 0x3c, 0xdb, 0xc5, 0xee, 0x3d,
  0xae, 0xf5, 0x4c, 0xbd, 0xaa, 0xb4, 0x89, 0x3d, 0xe8, 0x84, 0x27, 0x3e,
  0x41, 0x01, 0x02, 0x3e, 0x4a, 0x95, 0x33, 0x3e, 0x03, 0xf4, 0x04, 0x3e,
  0x93, 0xbd, 0xb8, 0xbd, 0xb8, 0x59, 0x85, 0x3c, 0x6d, 0xfb, 0x69, 0x3d,
  0x49, 0x26, 0x5e, 0xbe, 0x22, 0x96, 0xc9, 0x3d, 0x3f, 0x9b, 0x2d, 0xbd,
  0x76, 0x08, 0x4f, 0x3e, 0x5d, 0xef, 0xd3, 0x3d, 0x23, 0xe4, 0x6d, 0x3e,
  0x22, 0x83, 0x09, 0x3f, 0x4d, 0x1f, 0x29, 0xbe, 0x79, 0x72, 0x65, 0xbd,
  0x9c, 0x5e, 0x08, 0x3f, 0x32, 0xe9, 0x79, 0xbe, 0x70, 0x22, 0xb8, 0xbc,
  0xeb, 0xb7, 0xa2, 0x3e, 0x71, 0xea, 0x61, 0xbe, 0x61, 0xdc, 0x77, 0x3d,
  0x92, 0x9b, 0x1f, 0x3c, 0xaa, 0x98, 0x6f, 0x3e, 0xee, 0xf7, 0x0e, 0x3d,
  0xde, 0x3b, 0x51, 0xbe, 0xb4, 0x5a, 0x7b, 0x3e, 0xa8, 0x47, 0x2e, 0x3e,
  0x7c, 0x72, 0x5d, 0x3e, 0x26, 0xe1, 0xff, 0xff, 0x10, 0x00, 0x00, 0x00,
  0x07, 0x00, 0x00, 0x00, 0x1c, 0x00, 0x00, 0x00, 0x38, 0x00, 0x00, 0x00,
  0x04, 0x00, 0x00, 0x00, 0x08, 0x00, 0x00, 0x00, 0x04, 0x00, 0x00, 0x00,
  0x03, 0x00, 0x00, 0x00, 0x01, 0x00, 0x00, 0x00, 0x18, 0x00, 0x00, 0x00,
  0x73, 0x65, 0x71, 0x75, 0x65, 0x6e, 0x74, 0x69, 0x61, 0x6c, 0x2f, 0x63,
  0x6f, 0x6e, 0x76, 0x32, 0x64, 0x2f, 0x43, 0x6f, 0x6e, 0x76, 0x32, 0x44,
  0x00, 0x00, 0x00, 0x00, 0x20, 0xe1, 0xff, 0xff, 0x16, 0xe2, 0xff, 0xff,
  0x04, 0x00, 0x00, 0x00, 0x80, 0x00, 0x00, 0x00, 0x94, 0x77, 0x56, 0x3e,
  0x6d, 0xea, 0x5e, 0x3e, 0x27, 0xa2, 0x6c, 0xbd, 0xdb, 0x42, 0xfe, 0x3e,
  0x95, 0xd3, 0xb6, 0xbd, 0x1e, 0xc8, 0xad, 0x3d, 0xdf, 0x63, 0xbe, 0x3e,
  0xf3, 0x6e, 0xec, 0xbd, 0x4b, 0x2f, 0xa0, 0x3e, 0xb0, 0x65, 0x92, 0xbd,
  0x0f, 0x00, 0x9b, 0x3e, 0x6b, 0xcc, 0xa8, 0xbe, 0xc8, 0x47, 0x44, 0xbe,
  0x8d, 0xf5, 0xa8, 0x3e, 0x68, 0xfe, 0x40, 0x3e, 0x70, 0x59, 0xd1, 0xbe,
  0x32, 0x00, 0x9b, 0x3e, 0xe0, 0x4f, 0x90, 0x3e, 0xcf, 0xd1, 0xc0, 0xbd,
  0x42, 0x8c, 0xd5, 0x3e, 0x5e, 0xcc, 0xe8, 0x3c, 0xb2, 0x73, 0x96, 0x3d,
  0xf7, 0x40, 0x00, 0xbf, 0x8c, 0x74, 0x11, 0xbd, 0x8d, 0xba, 0x85, 0xbe,
  0xf2, 0xd8, 0x49, 0x3b, 0xb7, 0xa2, 0xc7, 0xbd, 0xa1, 0x5f, 0xb9, 0xbe,
  0xed, 0xea, 0x7e, 0xbe, 0x52, 0x98, 0x7e, 0xbd, 0x70, 0x64, 0xae, 0x3c,
  0xfe, 0x80, 0xa9, 0xbe, 0xfe, 0xe1, 0xff, 0xff, 0x10, 0x00, 0x00, 0x00,
  0x06, 0x00, 0x00, 0x00, 0x14, 0x00, 0x00, 0x00, 0x30, 0x00, 0x00, 0x00,
  0x02, 0x00, 0x00, 0x00, 0x02, 0x00, 0x00, 0x00, 0x10, 0x00, 0x00, 0x00,
  0x19, 0x00, 0x00, 0x00, 0x73, 0x65, 0x71, 0x75, 0x65, 0x6e, 0x74, 0x69,
  0x61, 0x6c, 0x2f, 0x64, 0x65, 0x6e, 0x73, 0x65, 0x5f, 0x31, 0x2f, 0x4d,
  0x61, 0x74, 0x4d, 0x75, 0x6c, 0x00, 0x00, 0x00, 0xf0, 0xe1, 0xff, 0xff,
  0xe6, 0xe2, 0xff, 0xff, 0x04, 0x00, 0x00, 0x00, 0x00, 0x1c, 0x00, 0x00,
  0xa8, 0xa7, 0xbb, 0x3d, 0xa2, 0xfc, 0x90, 0x3e, 0xf0, 0x46, 0x0c, 0x3d,
  0x7d, 0x74, 0xce, 0xbb, 0x6b, 0x08, 0x2a, 0x3d, 0x43, 0x5c, 0xe5, 0x3d,
  0x43, 0xff, 0x6b, 0x3d, 0x3d, 0x87, 0x26, 0xbe, 0xf1, 0x27, 0xcd, 0xbb,
  0x9a, 0x29, 0x68, 0x3e, 0x0b, 0x5c, 0x0e, 0x3e, 0xe0, 0xbc, 0x3c, 0xbc,
  0xf6, 0x25, 0x87, 0x3e, 0x71, 0x6b, 0x45, 0x3e, 0x61, 0x88, 0xad, 0xbb,
  0xac, 0xe1, 0x64, 0xbd, 0x08, 0x2e, 0xaf, 0x3c, 0xcf, 0xf4, 0x4c, 0xbc,
  0xa2, 0x6a, 0x8e, 0xbe, 0xe4, 0x2d, 0x0d, 0xbd, 0x4e, 0x63, 0x88, 0x3e,
  0xf8, 0xb3, 0x25, 0xbe, 0x9a, 0xad, 0x81, 0xbd, 0x8d, 0x7d, 0x21, 0xbe,
  0x9e, 0x38, 0x35, 0x3d, 0x3d, 0x18, 0xbc, 0x3e, 0x29, 0x12, 0xba, 0x3e,
  0xd4, 0x01, 0x6d, 0xbd, 0xeb, 0x3c, 0x56, 0xbe, 0xdc, 0xe5, 0x6b, 0x3e,
  0xa7, 0x38, 0x0c, 0x3d, 0xf9, 0x24, 0x43, 0xbd, 0x64, 0x40, 0xe1, 0xbc,
  0xb9, 0xcb, 0x8d, 0xbe, 0x7a, 0x49, 0x60, 0xbb, 0xa3, 0x47, 0xcb, 0xbd,
  0xbf, 0xf6, 0x0a, 0x3d, 0x01, 0x73, 0xf8, 0x3d, 0x6f, 0xee, 0xb2, 0x3c,
  0xda, 0xd8, 0x86, 0xbe, 0x06, 0x23, 0x9c, 0xbe, 0xd4, 0x42, 0x17, 0x3e,
  0x0f, 0xca, 0xa5, 0xbc, 0xaf, 0x9b, 0x33, 0x3d, 0x68, 0x4c, 0xeb, 0xbd,
  0x43, 0xf4, 0x65, 0x3d, 0x97, 0x41, 0xb1, 0xbe, 0xb3, 0x6e, 0x08, 0x3e,
  0xe1, 0xf2, 0xc7, 0xbd, 0xae, 0xd6, 0x20, 0xbd, 0xfe, 0x11, 0x41, 0x3c,
  0x1b, 0x1c, 0x79, 0xbe, 0x41, 0x83, 0x0b, 0xbd, 0x8c, 0x0f, 0xa4, 0x3c,
  0xda, 0x91, 0x00, 0xbd, 0xa8, 0x3c, 0x87, 0xbd, 0x33, 0x56, 0xac, 0xbd,
  0x79, 0x71, 0xff, 0xbd, 0xe0, 0x41, 0x1a, 0x3e, 0x49, 0x3b, 0x52, 0x3e,
  0x15, 0x5e, 0x77, 0xbd, 0xec, 0xf9, 0x6e, 0x3e, 0x69, 0x94, 0xe5, 0xbd,
  0x50, 0xcf, 0x59, 0x3d, 0x10, 0x03, 0xc1, 0x3d, 0x2a, 0x32, 0xc3, 0x3c,
  0xe4, 0x45, 0xa1, 0x3c, 0x5c, 0xb8, 0x36, 0x3d, 0x41, 0xdb, 0xf0, 0xbd,
  0xc8, 0x8d, 0x82, 0x3d, 0x68, 0xdb, 0x21, 0xbe, 0xe9, 0x88, 0xc6, 0x3d,
  0x6a, 0x41, 0x09, 0xba, 0x9c, 0xc9, 0xec, 0xbd, 0xb5, 0xf1, 0xfe, 0x3d,
  0x4e, 0x3b, 0xb6, 0xbd, 0xf7, 0xf0, 0x70, 0xbd, 0x56, 0xd2, 0x29, 0x3e,
  0x19, 0x55, 0x37, 0xbe, 0x58, 0xf2, 0x39, 0xbd, 0x03, 0x1e, 0xc7, 0xbd,
  0x8e, 0x04, 0x63, 0x3d, 0x8c, 0x6e, 0x9f, 0x3d, 0x98, 0x1a, 0x50, 0xbe,
  0xb0, 0x93, 0x98, 0xbe, 0x42, 0x53, 0xb3, 0xbc, 0x7c, 0xd1, 0x71, 0xbd,
  0x3f, 0x04, 0x45, 0xbe, 0xfb, 0x40, 0xfe, 0x3d, 0x75, 0x78, 0xe8, 0x3c,
  0xb1, 0x91, 0xbc, 0x3c, 0x08, 0x9d, 0x19, 0xbe, 0x06, 0x37, 0x16, 0xbe,
  0x8f, 0xed, 0x33, 0x3e, 0x5b, 0x67, 0x92, 0xbe, 0x4d, 0x24, 0xae, 0xbc,
  0xc8, 0xa6, 0x25, 0xbe, 0xb6, 0xf0, 0x7d, 0xbc, 0x5c, 0xef, 0x50, 0xbc,
  0x45, 0xf3, 0x41, 0xbe, 0x82, 0x87, 0xe6, 0xbd, 0xfa, 0xb7, 0x19, 0x3d,
  0x91, 0x2b, 0xdc, 0xbd, 0xa9, 0x22, 0x03, 0xbe, 0x43, 0x62, 0x22, 0xbe,
  0x3f, 0xfe, 0x84, 0xbe, 0x03, 0x52, 0x16, 0xbc, 0xdf, 0xd5, 0x5a, 0xbe,
  0xa5, 0xef, 0x04, 0xbd, 0x73, 0x2e, 0xa3, 0xbe, 0x80, 0x03, 0x68, 0xbe,
  0xfd, 0x6a, 0xc6, 0x3c, 0x7e, 0xfe, 0x06, 0xbf, 0x51, 0x79, 0x53, 0x3e,
  0x9b, 0x13, 0xb6, 0x3e, 0x70, 0x4e, 0xc7, 0xbe, 0xb6, 0x90, 0x21, 0x3f,
  0x55, 0x90, 0x9b, 0x3e, 0x83, 0x63, 0x84, 0x3e, 0xcc, 0x08, 0xc8, 0xbd,
  0xe6, 0x45, 0xe1, 0x3d, 0x00, 0x04, 0xdf, 0x3e, 0xc6, 0xca, 0xe5, 0x3e,
  0xff, 0x03, 0x87, 0x3e, 0x7e, 0x28, 0xc0, 0x3d, 0x4f, 0xbc, 0x8d, 0x3e,
  0x7e, 0xe0, 0x40, 0x3d, 0xc7, 0x8e, 0x0c, 0x3e, 0xc8, 0x1f, 0x88, 0xbe,
  0x8c, 0xfc, 0x89, 0xbd, 0x1c, 0x3b, 0x86, 0xbd, 0x0e, 0x47, 0xb1, 0xbe,
  0xd3, 0xc1, 0x0c, 0x3e, 0x41, 0x5b, 0x1a, 0x3f, 0xc1, 0xc9, 0xc8, 0x3e,
  0xef, 0x1f, 0xc0, 0xbd, 0x5c, 0xbe, 0x56, 0x3d, 0xec, 0xf0, 0xd9, 0x3c,
  0x8f, 0x06, 0xea, 0x3c, 0xb6, 0xf1, 0x3b, 0x3e, 0x0b, 0x09, 0x9f, 0xbe,
  0x55, 0x74, 0x04, 0x3f, 0x42, 0x11, 0xb1, 0x3d, 0x12, 0x77, 0x5c, 0x3e,
  0x37, 0x82, 0x2f, 0xbe, 0x46, 0xb4, 0x09, 0xbf, 0xad, 0x3b, 0x21, 0xbe,
  0x2f, 0x51, 0xe2, 0x3d, 0xc7, 0xd0, 0x47, 0xbe, 0x63, 0x23, 0xe9, 0xbc,
  0xf4, 0x07, 0x3e, 0x3e, 0x86, 0x10, 0xab, 0x3d, 0x63, 0x99, 0x4d, 0x3d,
  0xac, 0x25, 0xdc, 0x3c, 0xc6, 0x76, 0x9d, 0x3e, 0x56, 0xb5, 0x18, 0xbe,
  0x3c, 0x3c, 0x19, 0xbe, 0x38, 0x59, 0x1b, 0x3f, 0xaf, 0x6d, 0x93, 0x3c,
  0x4e, 0xab, 0x39, 0x3e, 0x87, 0x45, 0x75, 0xbe, 0x82, 0xac, 0x9b, 0xbe,
  0x92, 0x09, 0x0e, 0xbe, 0x8d, 0x46, 0x5c, 0xbd, 0x03, 0x8a, 0x2b, 0xbc,
  0xbb, 0x18, 0xa3, 0x3e, 0xd1, 0xd4, 0x56, 0xbd, 0xe5, 0xf2, 0x11, 0x3e,
  0x55, 0xc9, 0x12, 0x3e, 0x92, 0x5c, 0x5f, 0xbc, 0x63, 0x82, 0xcc, 0x3e,
  0xee, 0x02, 0x24, 0x3e, 0xa6, 0x23, 0xa8, 0x3d, 0xcb, 0xed, 0x4b, 0x3e,
  0xbf, 0x82, 0xd7, 0x3a, 0xe7, 0xc4, 0x49, 0xbc, 0x62, 0x08, 0x9c, 0xbd,
  0xda, 0xcb, 0xae, 0xbe, 0x13, 0x1e, 0x8d, 0xbe, 0x63, 0x13, 0x58, 0xbe,
  0xa2, 0xb2, 0x6c, 0x3e, 0x4e, 0x1b, 0xf8, 0x3e, 0x9f, 0xf2, 0xd8, 0xbb,
  0x97, 0x89, 0x36, 0xbd, 0xe6, 0x91, 0x48, 0xbd, 0x97, 0x3f, 0xd8, 0xbd,
  0x5d, 0x8e, 0xa3, 0x3e, 0x1a, 0xf0, 0x88, 0x3e, 0x10, 0x4e, 0x61, 0xbe,
  0xec, 0x01, 0x81, 0x3e, 0x9b, 0x4f, 0x85, 0x3d, 0xb5, 0xfe, 0x6a, 0xbd,
  0x27, 0xf6, 0xe1, 0xbe, 0xf5, 0x99, 0x86, 0xbe, 0xa8, 0x4c, 0x7e, 0xbe,
  0x6e, 0x65, 0xa0, 0xbe, 0xdb, 0x8e, 0x5a, 0xbe, 0x1a, 0x6c, 0x51, 0x3e,
  0xc0, 0x96, 0x0c, 0xbc, 0x54, 0x18, 0xc7, 0xbe, 0x82, 0xf3, 0xd0, 0xbd,
  0xb2, 0xac, 0x26, 0xbd, 0x99, 0x18, 0x88, 0x3c, 0x74, 0xdb, 0xd8, 0x3e,
  0x53, 0x91, 0xa5, 0xbe, 0xb8, 0x62, 0x98, 0x3e, 0x1d, 0xf7, 0x91, 0x3c,
  0x7a, 0xd4, 0x7f, 0xba, 0x92, 0x24, 0x8c, 0xbd, 0x84, 0x71, 0x43, 0x3e,
  0x53, 0x37, 0x08, 0xbe, 0x77, 0x0e, 0x37, 0xbb, 0x65, 0xbb, 0xad, 0xbc,
  0xae, 0x75, 0x50, 0x3e, 0x92, 0x6e, 0x05, 0x3d, 0x7b, 0xe1, 0xaf, 0xbd,
  0x39, 0xaa, 0x08, 0xbe, 0x64, 0x83, 0x50, 0x3e, 0x0f, 0xc6, 0x43, 0x3b,
  0xb0, 0x7c, 0x00, 0x3f, 0x35, 0x73, 0x0b, 0x3e, 0x16, 0x73, 0x46, 0xbe,
  0x9d, 0x66, 0x7c, 0x3e, 0x34, 0x35, 0x8b, 0x3e, 0x58, 0x70, 0x86, 0x3d,
  0x0b, 0x5a, 0x85, 0xbe, 0x2b, 0xe6, 0x48, 0xbe, 0xd0, 0x79, 0x83, 0x3e,
  0xe0, 0xfc, 0x53, 0xbe, 0x58, 0x3e, 0xb6, 0x3c, 0x59, 0xfc, 0x0f, 0xbf,
  0x1e, 0xc6, 0x12, 0x3d, 0x03, 0x4d, 0x9c, 0xbd, 0xe8, 0x10, 0xb9, 0xbe,
  0xd0, 0x6e, 0x0c, 0xbf, 0x03, 0x6f, 0x04, 0x3d, 0x05, 0xeb, 0xa6, 0xbe,
  0x35, 0x3f, 0x75, 0xbe, 0xc9, 0x9e, 0x30, 0xbd, 0x89, 0xae, 0x42, 0xbe,
  0xaa, 0x34, 0x7d, 0x3e, 0x0c, 0x2b, 0xae, 0x3e, 0xb1, 0x6b, 0xb0, 0x3d,
  0x0b, 0x4d, 0xa9, 0x3e, 0x87, 0xd3, 0x50, 0xbc, 0xbc, 0xc1, 0x74, 0xbd,
  0x4c, 0x15, 0x07, 0xbf, 0x0c, 0x62, 0x97, 0x3e, 0xc0, 0x50, 0x2b, 0xbd,
  0x4a, 0xac, 0xbb, 0xbe, 0x38, 0xa1, 0xe6, 0xbe, 0x8d, 0xe0, 0x31, 0xbe,
  0x5d, 0xc4, 0x8a, 0x3e, 0xcc, 0x5a, 0x28, 0xbe, 0x90, 0x19, 0xe0, 0xbc,
  0x09, 0x3e, 0xa2, 0x3e, 0xe3, 0x75, 0x75, 0x3e, 0xb1, 0x5d, 0xe8, 0x3e,
  0x39, 0xf3, 0x38, 0x3e, 0x22, 0x4e, 0x34, 0x3e, 0x30, 0x4e, 0xa2, 0x3e,
  0xcc, 0x7d, 0x90, 0x3d, 0x29, 0x45, 0x1d, 0xbc, 0x85, 0x8a, 0x8a, 0xbb,
  0x33, 0xa0, 0x94, 0xbd, 0x80, 0xca, 0x48, 0xbb, 0xa5, 0x16, 0x08, 0xbe,
  0xce, 0xe0, 0x57, 0xbe, 0x47, 0xbf, 0x24, 0x3f, 0x0b, 0x7f, 0xb7, 0x3e,
  0x9d, 0x84, 0x29, 0x3e, 0xd7, 0x51, 0x1d, 0xbd, 0x8a, 0xf6, 0x09, 0x3e,
  0x17, 0x66, 0xf1, 0x3e, 0xa0, 0x07, 0x0f, 0x3e, 0x35, 0x7c, 0x55, 0x3e,
  0xc5, 0xc8, 0xc1, 0xbd, 0x2a, 0x09, 0x39, 0xbe, 0x7c, 0xd3, 0x02, 0xbd,
  0x5b, 0xae, 0x82, 0xbe, 0x96, 0x83, 0x9c, 0xbc, 0x97, 0x7e, 0xed, 0x3c,
  0x74, 0x9f, 0x77, 0xbe, 0x80, 0xe2, 0x20, 0xbe, 0x52, 0xb8, 0x27, 0x3f,
  0x0e, 0xfa, 0x8a, 0x3e, 0x7c, 0x4d, 0x35, 0xbe, 0x91, 0xd3, 0xc1, 0x3d,
  0xb8, 0x7a, 0xdc, 0x3d, 0x65, 0x4f, 0xcc, 0x3e, 0x00, 0x56, 0x78, 0x3e,
  0x0f, 0xdf, 0x10, 0x3e, 0x41, 0xd4, 0x83, 0x3e, 0xa2, 0xa8, 0x73, 0xbe,
  0x5e, 0x63, 0xb5, 0x3e, 0x37, 0x0b, 0x7a, 0x3d, 0xfb, 0x6f, 0x5d, 0x3d,
  0x14, 0x08, 0x4e, 0x3d, 0x6c, 0x74, 0x0b, 0xbe, 0x8b, 0x30, 0x22, 0xbe,
  0x4c, 0xf2, 0x1e, 0x3f, 0xd4, 0x82, 0xba, 0x3e, 0xfd, 0x3c, 0x1f, 0xbd,
  0x18, 0xf8, 0x94, 0xbd, 0x29, 0xef, 0x94, 0x3d, 0x47, 0x09, 0xfc, 0x3e,
  0x09, 0x56, 0x99, 0x3c, 0x6e, 0xfb, 0xd7, 0x3c, 0x3d, 0x65, 0xf3, 0x3c,
  0x9e, 0xdb, 0x65, 0xbd, 0xdc, 0x97, 0x0e, 0xbe, 0xa0, 0x2e, 0x2f, 0xbd,
  0x5c, 0xc8, 0x37, 0x3d, 0x47, 0x74, 0x02, 0xbe, 0x7f, 0x97, 0x3b, 0xbd,
  0xed, 0x59, 0xa1, 0xbd, 0x8d, 0xf0, 0x0b, 0x3f, 0xca, 0x2f, 0x77, 0x3e,
  0x1e, 0x61, 0xff, 0x3d, 0x1b, 0xb9, 0xbe, 0xbd, 0x26, 0xd1, 0x9f, 0xbd,
  0x29, 0x20, 0xbb, 0xbd, 0x27, 0xaa, 0xc6, 0xbd, 0xf6, 0xd9, 0x6f, 0xbd,
  0xce, 0xe9, 0x03, 0xbe, 0x44, 0x98, 0x66, 0x3b, 0x66, 0x60, 0x70, 0xbe,
  0xe1, 0x2f, 0x15, 0xbd, 0x9e, 0x2a, 0x0e, 0xbd, 0xd5, 0xa4, 0x51, 0xbd,
  0xf2, 0x17, 0x05, 0xbe, 0x1f, 0xa5, 0x4e, 0x3e, 0x65, 0x90, 0x37, 0x3e,
  0x62, 0x4a, 0x75, 0xbc, 0x94, 0x07, 0x48, 0x3b, 0x4b, 0x75, 0x8e, 0x3d,
  0x21, 0xb8, 0x02, 0x3d, 0xb4, 0xe6, 0x09, 0xbe, 0x14, 0x34, 0x17, 0xbe,
  0x0f, 0x20, 0xed, 0x3d, 0x40, 0xe1, 0xdd, 0xbd, 0x29, 0xbf, 0xf1, 0x3d,
  0xd0, 0x0a, 0x87, 0x3a, 0x95, 0x0d, 0x71, 0xbb, 0x88, 0x87, 0x22, 0xbe,
  0x0f, 0xde, 0x1d, 0xbe, 0x6b, 0xd8, 0x8d, 0xbe, 0xb1, 0xde, 0x39, 0x3e,
  0xca, 0x10, 0xae, 0xbd, 0x62, 0x8d, 0xb3, 0xbd, 0x44, 0x26, 0x96, 0x3d,
  0x84, 0x13, 0x2e, 0x3d, 0x73, 0x0f, 0x54, 0x3e, 0x34, 0x97, 0x53, 0xbb,
  0x34, 0x8a, 0x8a, 0xbd, 0x70, 0x0f, 0x18, 0x3d, 0x72, 0xb9, 0xa8, 0xbc,
  0xd0, 0x7f, 0x74, 0x3d, 0xae, 0x06, 0x66, 0xbe, 0xdc, 0xd2, 0x18, 0xbe,
  0xf2, 0xd9, 0xfe, 0xbd, 0xbc, 0xae, 0x68, 0x3d, 0x1b, 0x82, 0x62, 0xbd,
  0xf5, 0x5c, 0xc9, 0x3d, 0xde, 0x6e, 0xd8, 0xbd, 0xcc, 0x83, 0x10, 0x3e,
  0x17, 0x26, 0x20, 0x3e, 0x6a, 0x65, 0x29, 0xbd, 0x4d, 0xe3, 0xd2, 0x3c,
  0x39, 0x9a, 0x64, 0x3f, 0x28, 0xb7, 0x32, 0x3e, 0x2c, 0xde, 0x45, 0xbe,
  0x50, 0xbb, 0x4b, 0x3e, 0xdc, 0xc0, 0x93, 0x3b, 0x4a, 0xb7, 0x8c, 0xbe,
  0x02, 0x5e, 0xe0, 0xbd, 0x16, 0x3b, 0xb2, 0xbd, 0x09, 0x26, 0x5d, 0x3d,
  0xfd, 0x48, 0x3c, 0xbe, 0x23, 0x1f, 0x60, 0x3d, 0xc0, 0x99, 0x81, 0xbe,
  0x7f, 0x0d, 0x29, 0xbe, 0x6c, 0xb3, 0xf5, 0x3d, 0xf7, 0x93, 0xdc, 0x3d,
  0x54, 0x47, 0x82, 0x3e, 0x17, 0x5d, 0xf2, 0x3e, 0xf9, 0x87, 0x9d, 0x3d,
  0x3d, 0x2f, 0x53, 0x3e, 0x47, 0xd1, 0x34, 0x3e, 0x28, 0xec, 0xaa, 0x3d,
  0x5b, 0x57, 0xca, 0xbc, 0x4b, 0x8c, 0x2f, 0xbd, 0x69, 0x47, 0x93, 0xbc,
  0x99, 0x26, 0x51, 0xbe, 0xda, 0xeb, 0x9d, 0xbe, 0x4f, 0x6a, 0x28, 0xbd,
  0x75, 0x73, 0x11, 0xbd, 0x0b, 0x65, 0xa0, 0xbe, 0xfc, 0x91, 0xc1, 0x3d,
  0x61, 0x72, 0x5d, 0xbd, 0xb8, 0x26, 0xdc, 0x3e, 0x61, 0x50, 0x20, 0x3e,
  0x29, 0x0d, 0x01, 0x3e, 0x63, 0x10, 0x59, 0x3e, 0x3b, 0xa0, 0x06, 0x3e,
  0x97, 0xfa, 0xa4, 0xbc, 0x8f, 0x21, 0x2b, 0xbd, 0x3b, 0x33, 0x18, 0x3e,
  0x94, 0x5e, 0xd1, 0x3c, 0x8a, 0x33, 0xe8, 0xbe, 0x74, 0xdd, 0x6b, 0xbe,
  0x2e, 0xf1, 0xc0, 0xbe, 0x54, 0xbf, 0x92, 0xbe, 0xf4, 0xcc, 0x8c, 0x3e,
  0xf5, 0x0c, 0x23, 0x3e, 0xa7, 0x54, 0xb1, 0x3e, 0xda, 0x9c, 0xc2, 0x3e,
  0x2c, 0xf3, 0x47, 0x3e, 0x29, 0xae, 0x01, 0x3e, 0x38, 0x9b, 0x9c, 0x3e,
  0x74, 0x3d, 0x4d, 0x3d, 0x60, 0xe7, 0x62, 0xbe, 0xec, 0x4d, 0x38, 0xbe,
  0x9e, 0x5e, 0x74, 0x3e, 0x29, 0xc5, 0xd1, 0x3d, 0xe1, 0xd0, 0xa2, 0xbe,
  0x84, 0x58, 0x8e, 0xbe, 0x9f, 0xbc, 0x49, 0xbf, 0x65, 0x32, 0x87, 0xbe,
  0xbe, 0x88, 0x14, 0xbe, 0x3e, 0x47, 0x7d, 0x3d, 0x57, 0xeb, 0xc0, 0x3d,
  0x5d, 0xad, 0xfe, 0xbc, 0xa1, 0xa2, 0x2b, 0x3e, 0x96, 0x83, 0xc9, 0xbd,
  0xb0, 0xdc, 0x30, 0x3d, 0x19, 0xf5, 0xed, 0xbd, 0xc8, 0xb0, 0x75, 0x3e,
  0x44, 0xa5, 0xba, 0xbe, 0xfe, 0xc7, 0x13, 0xbd, 0x3f, 0xe2, 0x1b, 0xbe,
  0x08, 0x2e, 0x44, 0xbe, 0x19, 0xa5, 0x69, 0xbe, 0x30, 0x04, 0x08, 0xbf,
  0x9e, 0x37, 0xbf, 0x3c, 0x55, 0x3a, 0xfa, 0xbe, 0x45, 0xd3, 0xaf, 0xbe,
  0x98, 0x40, 0xac, 0xbe, 0x25, 0x0d, 0x80, 0xbe, 0xf1, 0xae, 0x6d, 0xbd,
  0x0b, 0xb4, 0x76, 0xbe, 0x28, 0x73, 0xfc, 0xbd, 0x30, 0xb5, 0x5e, 0x3e,
  0x53, 0x5f, 0x6b, 0x3f, 0x58, 0xa4, 0x89, 0x3d, 0x0a, 0xe5, 0xcf, 0xbd,
  0x98, 0xaf, 0x98, 0xbe, 0x61, 0x95, 0x47, 0x3e, 0xda, 0x8e, 0x9e, 0x3e,
  0x27, 0x17, 0xb6, 0xbc, 0x65, 0x48, 0xf7, 0x3d, 0x4d, 0xfc, 0xc9, 0x3e,
  0x22, 0x41, 0xa2, 0xbe, 0x42, 0x7d, 0xd4, 0x3d, 0x92, 0x91, 0x19, 0xbe,
  0xd1, 0x96, 0x3b, 0x3e, 0xd7, 0xb4, 0x5a, 0xbe, 0x0e, 0x24, 0xcf, 0xbd,
  0x36, 0x86, 0xee, 0x3c, 0x32, 0x23, 0x0f, 0x3f, 0x30, 0x22, 0x38, 0x3e,
  0x82, 0x89, 0xb2, 0x3d, 0x17, 0x98, 0xa1, 0xbe, 0x04, 0x15, 0xad, 0x3d,
  0x0b, 0xf1, 0x7e, 0x3d, 0xf3, 0x2f, 0x4d, 0x3e, 0x26, 0x5c, 0x17, 0xbf,
  0xc0, 0x35, 0x00, 0x3f, 0x93, 0xd1, 0xbd, 0xbd, 0x19, 0xac, 0x83, 0x3e,
  0x9b, 0x85, 0xcd, 0x3d, 0x9b, 0xe9, 0xab, 0xbe, 0x74, 0x87, 0x2e, 0xbd,
  0x2e, 0x9a, 0x02, 0x3e, 0xcb, 0x50, 0x49, 0x3e, 0x92, 0x97, 0x92, 0x3e,
  0x1c, 0xce, 0xd1, 0x3d, 0xe9, 0x48, 0x16, 0xbd, 0x5b, 0x4e, 0x99, 0xbe,
  0xea, 0x2f, 0x27, 0xbd, 0x95, 0xea, 0x9a, 0x3c, 0xba, 0xc4, 0x63, 0xbc,
  0xef, 0xe1, 0x0e, 0xbf, 0xf1, 0x85, 0x02, 0xbd, 0xc3, 0x8e, 0x40, 0xbe,
  0xf4, 0xd9, 0xca, 0x3e, 0xf2, 0x56, 0x92, 0xbe, 0xc5, 0xd4, 0xf1, 0xbe,
  0x03, 0x05, 0x73, 0xbe, 0x37, 0x24, 0x92, 0xbe, 0x9c, 0x5f, 0x33, 0xbe,
  0xd5, 0x30, 0xfd, 0x3e, 0x33, 0xe0, 0x69, 0xbe, 0xa5, 0x8b, 0x28, 0xbe,
  0x49, 0x65, 0x98, 0xbe, 0x59, 0xc7, 0xbf, 0xbc, 0xcd, 0xdd, 0x9d, 0xbd,
  0x0c, 0x77, 0xbd, 0x3e, 0xe1, 0xd8, 0x13, 0xbe, 0x32, 0xe1, 0xd4, 0x3e,
  0x27, 0xca, 0xa1, 0xbe, 0xff, 0x0b, 0x85, 0x3c, 0xcc, 0xef, 0x0e, 0xbf,
  0x7b, 0x19, 0x76, 0xbd, 0xba, 0xa4, 0x99, 0xbd, 0xf5, 0xc7, 0xa8, 0xbe,
  0x25, 0xc7, 0x1d, 0x3e, 0x61, 0x90, 0xe9, 0x3e, 0xdc, 0xe6, 0xc6, 0x3d,
  0xe5, 0x6b, 0x07, 0xbe, 0x3d, 0x62, 0xd5, 0xbe, 0xe6, 0x28, 0xde, 0x3d,
  0xba, 0x80, 0x4a, 0x3e, 0x47, 0x40, 0xfa, 0x3d, 0xee, 0xd3, 0x7b, 0xbe,
  0x19, 0xa4, 0x0a, 0x3e, 0xa2, 0x56, 0xbc, 0xbe, 0x38, 0x13, 0x6e, 0xbe,
  0x16, 0xe9, 0x9a, 0x3c, 0x48, 0x95, 0x60, 0x3b, 0x02, 0xaf, 0x1e, 0x3e,
  0xe9, 0x26, 0x80, 0xbe, 0xe6, 0xe7, 0x19, 0x3e, 0x24, 0x06, 0x0d, 0x3f,
  0x38, 0xb7, 0xa4, 0x3e, 0xf1, 0xcd, 0x17, 0x3e, 0x75, 0xad, 0xb0, 0xbd,
  0x20, 0x62, 0x33, 0x3d, 0x7f, 0x94, 0xac, 0x3d, 0x4c, 0x78, 0x74, 0x3e,
  0x55, 0x15, 0x15, 0xbb, 0x18, 0x15, 0x5c, 0x3e, 0x1c, 0x44, 0xe2, 0xbb,
  0x76, 0x29, 0x60, 0x3e, 0xa1, 0x1a, 0xa0, 0xbd, 0xd6, 0xc3, 0xb3, 0x3e,
  0x97, 0xf2, 0x81, 0x3c, 0x3e, 0x89, 0xb5, 0xbd, 0xc3, 0x96, 0x8c, 0x3d,
  0x3a, 0x0a, 0x27, 0x3f, 0xc6, 0x79, 0xbf, 0x3e, 0x56, 0x0b, 0x06, 0x3d,
  0x70, 0x7e, 0x5b, 0x3d, 0x97, 0x56, 0xc3, 0x3d, 0x9a, 0x9c, 0x53, 0x3e,
  0xc6, 0x95, 0xb8, 0x3e, 0x94, 0x80, 0xce, 0x3e, 0x93, 0xb5, 0x59, 0x3e,
  0xd1, 0xbe, 0x2f, 0x3e, 0x12, 0x45, 0xbb, 0xbb, 0xae, 0xa2, 0x2b, 0x3c,
  0x38, 0xeb, 0x12, 0x3e, 0xf4, 0xb5, 0x18, 0xbe, 0xce, 0x90, 0xe8, 0xbd,
  0x46, 0xf5, 0x5d, 0x3e, 0x7c, 0x2d, 0x0a, 0x3f, 0x14, 0xbb, 0x8f, 0x3e,
  0xc5, 0x6f, 0xa3, 0xbd, 0xec, 0xdd, 0x27, 0x3d, 0x6f, 0x56, 0xbe, 0x3e,
  0xc6, 0x30, 0xf3, 0x3e, 0x7b, 0x97, 0xb0, 0x3e, 0x42, 0x03, 0x23, 0x3f,
  0x15, 0x65, 0xb2, 0x3e, 0x00, 0xd4, 0xef, 0x3d, 0xc9, 0xe2, 0x8b, 0x3e,
  0xd3, 0x39, 0xfd, 0x3d, 0x82, 0x5e, 0x90, 0xbe, 0x55, 0x58, 0x92, 0xbe,
  0xde, 0xf8, 0x55, 0xbe, 0x4a, 0xa9, 0x12, 0x3e, 0x2d, 0xe9, 0xd9, 0xbd,
  0x79, 0x3e, 0xce, 0x3d, 0xee, 0xb5, 0x73, 0xbe, 0x3d, 0x2c, 0xcf, 0x3d,
  0x28, 0x96, 0xdf, 0xbc, 0xa7, 0x24, 0x45, 0x3e, 0x1b, 0x64, 0x39, 0x3e,
  0xc0, 0x86, 0xc0, 0xbe, 0x39, 0xfc, 0x74, 0x3e, 0x94, 0x28, 0x50, 0x3d,
  0x6e, 0xf3, 0xdd, 0xbd, 0x9e, 0x79, 0xa4, 0xbd, 0xe0, 0x37, 0xde, 0x3d,
  0xcb, 0x1c, 0x28, 0xbe, 0x34, 0x2b, 0xbb, 0xbc, 0xda, 0xfe, 0x11, 0xbe,
  0x67, 0x6c, 0x99, 0x3b, 0xa5, 0xfa, 0x43, 0xbe, 0x45, 0x6c, 0xa3, 0xbe,
  0xc2, 0xff, 0xb0, 0x3d, 0xec, 0x8f, 0x12, 0xbd, 0x53, 0x66, 0xe8, 0xbd,
  0xc0, 0x02, 0x91, 0x3e, 0x89, 0x3e, 0x37, 0xbe, 0x92, 0x95, 0x8e, 0x3e,
  0x59, 0x1d, 0x53, 0xbd, 0xfd, 0x6a, 0xb7, 0x3c, 0x4a, 0x1d, 0x4c, 0xbd,
  0x7b, 0x4a, 0x4b, 0xbd, 0x36, 0x84, 0xab, 0x3d, 0x89, 0x52, 0x1b, 0xbe,
  0x27, 0xf9, 0x82, 0xbe, 0x0e, 0xf5, 0x8c, 0x3e, 0x78, 0x2d, 0x9f, 0xbd,
  0x91, 0x87, 0xe9, 0x3d, 0xef, 0xb0, 0x03, 0xbe, 0x9e, 0x08, 0x1b, 0x3e,
  0x11, 0x28, 0x38, 0x3e, 0xa8, 0x0b, 0x2d, 0x3e, 0xbc, 0xc2, 0xed, 0xbd,
  0x8e, 0xfc, 0x88, 0xbb, 0xd1, 0x6b, 0x0f, 0x3e, 0x44, 0x41, 0xaf, 0x3d,
  0x3f, 0x44, 0x70, 0xbe, 0x18, 0x56, 0xb5, 0xbd, 0x79, 0x2f, 0xff, 0xbc,
  0x34, 0x1e, 0x67, 0xbe, 0x9d, 0x97, 0x6a, 0xbc, 0x6c, 0x02, 0xd5, 0x3e,
  0x10, 0x4d, 0x84, 0xbd, 0x67, 0x48, 0x2f, 0xbe, 0x07, 0xcb, 0xc3, 0xbc,
  0x99, 0xf5, 0x3b, 0xbb, 0x44, 0x8b, 0xe6, 0x3d, 0x2e, 0xb3, 0x99, 0x3d,
  0xdd, 0x5d, 0xab, 0xbe, 0xe1, 0x8d, 0x8d, 0x3e, 0xbe, 0x7d, 0x01, 0x3e,
  0x2f, 0xc1, 0x1f, 0xbe, 0xea, 0x13, 0x53, 0xbe, 0xd2, 0xad, 0x46, 0xbe,
  0x10, 0x4b, 0x5c, 0x3c, 0x3d, 0xe5, 0xb7, 0xbd, 0x86, 0x29, 0x95, 0x39,
  0x7b, 0x7e, 0x89, 0x3e, 0xcf, 0x7f, 0x86, 0xbe, 0x29, 0x3a, 0x2b, 0xbe,
  0x14, 0x05, 0x1c, 0x3d, 0x8f, 0xfe, 0x98, 0xbd, 0xb0, 0x5f, 0x67, 0xbe,
  0xa8, 0x82, 0x27, 0x3e, 0xaf, 0x33, 0x5b, 0xbe, 0xd3, 0x87, 0x88, 0xbd,
  0x42, 0xe6, 0x86, 0xbd, 0x7d, 0xc2, 0x3d, 0xbe, 0xc9, 0xa5, 0x80, 0x3c,
  0x25, 0x07, 0x88, 0x3e, 0xef, 0xab, 0x7f, 0xbb, 0xf0, 0xe7, 0x46, 0xbe,
  0x4c, 0x69, 0x53, 0x3c, 0x64, 0x2e, 0x35, 0x3e, 0x56, 0xb0, 0x3f, 0xbe,
  0x35, 0x62, 0xae, 0xbe, 0xf9, 0x5b, 0xdd, 0xbb, 0xa4, 0xa5, 0x50, 0x3e,
  0x08, 0x1f, 0x9b, 0xbe, 0x16, 0x00, 0x76, 0xbe, 0xc7, 0xeb, 0xf7, 0xbd,
  0x05, 0x4c, 0xf3, 0x3d, 0xb5, 0x86, 0xeb, 0xbd, 0xe6, 0x3c, 0x8e, 0xbd,
  0xc1, 0x7c, 0x1c, 0xbe, 0x50, 0x8b, 0x41, 0xbd, 0x99, 0x0b, 0xc0, 0xbe,
  0xe2, 0xf3, 0x80, 0x3d, 0x1c, 0x26, 0xbd, 0xbd, 0x0b, 0xad, 0xd7, 0x3d,
  0x71, 0xeb, 0xd0, 0xbc, 0x38, 0xee, 0xf7, 0xbe, 0x70, 0x0e, 0xb0, 0xbe,
  0x53, 0x58, 0xe6, 0xbd, 0xf4, 0x70, 0x02, 0xbe, 0x72, 0x16, 0xb5, 0x3d,
  0xd0, 0xb0, 0x2e, 0x3e, 0x43, 0x03, 0x1d, 0x3d, 0x4f, 0xd3, 0xf4, 0xbe,
  0x45, 0x7f, 0x64, 0x3e, 0x6f, 0x04, 0xf9, 0xbd, 0xe1, 0x2b, 0xc2, 0x3d,
  0xaa, 0x76, 0x55, 0xbe, 0x13, 0x71, 0x63, 0xbe, 0x41, 0x23, 0x92, 0xbe,
  0x03, 0xe8, 0x23, 0x3e, 0xd1, 0x76, 0xb9, 0x3c, 0x5d, 0x28, 0xd1, 0xbe,
  0x49, 0x0e, 0x7c, 0xbe, 0xff, 0x27, 0xd2, 0xbd, 0xf3, 0xeb, 0xac, 0x3c,
  0x5a, 0xa3, 0x14, 0x3d, 0xb6, 0x0d, 0x67, 0x3e, 0xb8, 0x82, 0x29, 0xbe,
  0xd0, 0xb4, 0xa0, 0xbe, 0xd7, 0x0f, 0x81, 0x3e, 0x3f, 0xd2, 0x08, 0x3d,
  0x72, 0x5d, 0x17, 0x3e, 0xb7, 0x5f, 0xb8, 0xbc, 0xd0, 0x07, 0x0b, 0xbc,
  0x6d, 0x97, 0xc1, 0x3d, 0xae, 0x5e, 0xf4, 0x3e, 0x73, 0x5b, 0x81, 0xbe,
  0xdc, 0xdc, 0x7e, 0xbe, 0x19, 0xf4, 0x18, 0xbe, 0xfb, 0x39, 0x5f, 0xbd,
  0xf6, 0x31, 0x6c, 0xbd, 0x5c, 0x63, 0xa0, 0x3d, 0x66, 0x9a, 0xc8, 0x3e,
  0x16, 0xe4, 0x7b, 0x3e, 0xfc, 0x79, 0xc0, 0xbd, 0xc1, 0xd4, 0x21, 0x3a,
  0x11, 0xf8, 0x53, 0x3d, 0x93, 0x3c, 0xfc, 0x3c, 0xe2, 0xd9, 0x31, 0x3e,
  0x79, 0xfb, 0x24, 0xbe, 0xed, 0x50, 0x6d, 0xbd, 0xd3, 0x47, 0xc5, 0x3e,
  0x25, 0x6b, 0x04, 0xbe, 0xd9, 0x90, 0x4f, 0xbc, 0x89, 0x74, 0x41, 0xbe,
  0x70, 0x43, 0x85, 0x3e, 0x1b, 0x54, 0xcf, 0xbd, 0xad, 0xed, 0x2e, 0xbe,
  0xc2, 0xdd, 0xc8, 0x3e, 0xdf, 0xd4, 0x27, 0x3f, 0x0b, 0xe7, 0xa4, 0xbe,
  0x7e, 0xfc, 0x17, 0x3e, 0x06, 0xe1, 0x0b, 0x3e, 0x71, 0xb0, 0xfb, 0x3d,
  0x24, 0x7a, 0xc6, 0x3e, 0x2a, 0x02, 0x3d, 0xbe, 0xde, 0x3f, 0x81, 0xbc,
  0x48, 0x6b, 0x8d, 0x3e, 0x90, 0xb8, 0xaf, 0xbc, 0x14, 0x2a, 0x48, 0xbe,
  0x4d, 0xbd, 0x96, 0xbe, 0xab, 0xea, 0x29, 0x3d, 0xcf, 0xf4, 0x8a, 0xbd,
  0x3f, 0x03, 0xf4, 0x3d, 0xc8, 0x76, 0xbe, 0x3d, 0xc8, 0x52, 0xd5, 0x3e,
  0x15, 0xd4, 0xdd, 0x3d, 0xb1, 0x6d, 0x3e, 0x3e, 0x07, 0x5d, 0xb7, 0xbc,
  0x6c, 0x17, 0xbb, 0xbd, 0x51, 0x21, 0x43, 0xbd, 0x77, 0x72, 0xdf, 0x3d,
  0x0f, 0x94, 0xaa, 0xbd, 0xc9, 0x64, 0x85, 0x3e, 0xbf, 0xfd, 0x9b, 0xbc,
  0x26, 0xc5, 0x95, 0xbd, 0xf2, 0x82, 0x91, 0xbe, 0xb3, 0x26, 0xba, 0xbd,
  0x3b, 0x9e, 0x12, 0xbe, 0x65, 0x7d, 0x93, 0x3d, 0xdc, 0x97, 0xc3, 0x3e,
  0xd0, 0x45, 0xb8, 0x3e, 0x7a, 0xd3, 0x52, 0xbe, 0x2f, 0x25, 0x34, 0x3d,
  0x3b, 0x76, 0x27, 0xbe, 0x26, 0x92, 0x04, 0xbe, 0x54, 0xf3, 0x8b, 0xbe,
  0x8c, 0x61, 0xa8, 0xbd, 0x43, 0x56, 0x86, 0xbd, 0x63, 0x78, 0x6c, 0xbd,
  0x20, 0xd9, 0x86, 0xbe, 0xb2, 0xbc, 0xa9, 0xbe, 0x72, 0xa5, 0xfc, 0xbd,
  0x03, 0x02, 0x6e, 0xbe, 0x71, 0x16, 0x8a, 0xbe, 0x67, 0xc3, 0xaa, 0xbd,
  0x35, 0xcb, 0x74, 0xbc, 0xb1, 0x5a, 0xed, 0xbd, 0xbe, 0xcd, 0xa9, 0xbe,
  0x27, 0xdd, 0xcf, 0xbe, 0x5b, 0x83, 0x68, 0xbe, 0x9a, 0x99, 0x65, 0xbe,
  0x37, 0xa3, 0x59, 0xbe, 0xf7, 0xcb, 0x6d, 0xbd, 0x40, 0xb1, 0x0e, 0x3f,
  0x67, 0x62, 0x29, 0x3f, 0xac, 0x17, 0x89, 0x3e, 0xb8, 0x0d, 0x0d, 0xbe,
  0x9f, 0x28, 0x03, 0xbe, 0x81, 0x92, 0x81, 0x3d, 0xde, 0x51, 0x89, 0x3e,
  0x20, 0x35, 0xa6, 0x3d, 0xb7, 0xf2, 0x43, 0x3e, 0xa1, 0x07, 0x54, 0x3e,
  0xe7, 0x1c, 0x15, 0xbe, 0x3d, 0xa5, 0x67, 0x3c, 0xdf, 0x61, 0xc7, 0xbe,
  0x30, 0xe2, 0xca, 0x3d, 0x1d, 0x8c, 0xa7, 0xbe, 0xfe, 0x95, 0xae, 0xbe,
  0x10, 0x6b, 0x98, 0xbc, 0x3e, 0xaa, 0x35, 0x3f, 0xe4, 0x25, 0x56, 0x3e,
  0xcd, 0x42, 0x25, 0xba, 0x2e, 0x56, 0x56, 0xbe, 0x73, 0xf7, 0x90, 0xbc,
  0x5a, 0x3c, 0xb1, 0x3d, 0x97, 0x75, 0xa3, 0x3e, 0x92, 0x95, 0xe5, 0xbe,
  0x6c, 0xc5, 0x67, 0x3e, 0xfe, 0x9a, 0xb4, 0xbc, 0x7a, 0xf0, 0xf1, 0xbc,
  0x74, 0x4e, 0x4e, 0x3e, 0x42, 0xbd, 0x7f, 0xbd, 0x33, 0xbc, 0xba, 0xbd,
  0x8c, 0x7f, 0x5d, 0xbd, 0xd5, 0x37, 0x5e, 0x3b, 0x0f, 0x27, 0x15, 0x3f,
  0xc9, 0x29, 0x91, 0xbd, 0x78, 0xe9, 0xba, 0xbb, 0x36, 0x40, 0x2f, 0xbe,
  0x2c, 0x70, 0x7b, 0xbd, 0xd9, 0x89, 0x7e, 0x3e, 0x08, 0xb8, 0x85, 0x3e,
  0xf1, 0xe3, 0x3c, 0x3d, 0x99, 0x8e, 0x0e, 0x3e, 0x69, 0xd9, 0x46, 0xbd,
  0x49, 0x2f, 0x56, 0x3e, 0xa5, 0x29, 0x73, 0xbe, 0x25, 0x23, 0xc1, 0xbe,
  0x95, 0xeb, 0xa1, 0xbe, 0x2d, 0x69, 0xd0, 0xbe, 0xb4, 0xd1, 0x07, 0xbe,
  0x23, 0xeb, 0x4b, 0x3e, 0x5f, 0x2e, 0xba, 0x3d, 0x75, 0x30, 0x64, 0xbe,
  0x1e, 0x3a, 0x18, 0xbe, 0x7f, 0xb4, 0x49, 0x3d, 0xc0, 0xd4, 0xed, 0x3d,
  0xe3, 0xa3, 0x6c, 0x3e, 0xcd, 0xa2, 0x86, 0xbe, 0xff, 0x5e, 0xc2, 0x3e,
  0x10, 0xd3, 0x85, 0xbe, 0x34, 0xe9, 0xba, 0x3d, 0x8b, 0xe7, 0x2c, 0xbe,
  0x16, 0xeb, 0x74, 0xbe, 0xcb, 0xf4, 0x85, 0xbe, 0xc8, 0x20, 0x9d, 0xbe,
  0x57, 0xb0, 0xd5, 0x3c, 0x27, 0x2f, 0xc3, 0x3e, 0x4f, 0x6d, 0xe8, 0x3d,
  0x7a, 0xdd, 0x83, 0xbe, 0x0b, 0x6c, 0xbb, 0xbe, 0x32, 0x47, 0x28, 0x3e,
  0x41, 0x10, 0x11, 0x3e, 0x5f, 0xae, 0xbe, 0x3e, 0x3b, 0x6f, 0x9f, 0xbe,
  0x9e, 0xe4, 0xc3, 0x3d, 0xcc, 0x4a, 0x6d, 0xbe, 0xdf, 0xfb, 0x03, 0xbe,
  0x69, 0x45, 0xcc, 0x3d, 0x89, 0xfc, 0x86, 0xbd, 0x66, 0x12, 0x52, 0x3e,
  0x75, 0x91, 0x82, 0xbe, 0xca, 0x11, 0x2f, 0x3f, 0xc4, 0xaa, 0x2e, 0x3f,
  0xce, 0x98, 0xff, 0x3d, 0xd5, 0x56, 0x5e, 0xbc, 0x32, 0x98, 0x94, 0xbd,
  0x01, 0x35, 0xa8, 0x3d, 0x9a, 0x06, 0x77, 0x3e, 0x67, 0x8d, 0x02, 0x3e,
  0x68, 0x37, 0x6f, 0xbc, 0x32, 0xd6, 0x4f, 0x3e, 0xb3, 0x41, 0x10, 0x3e,
  0x96, 0xa7, 0x65, 0xbd, 0xec, 0x8b, 0xd2, 0x3c, 0x95, 0xb0, 0x94, 0x3e,
  0xf8, 0xa4, 0x69, 0x3e, 0x96, 0x72, 0xe1, 0xbb, 0x2f, 0x88, 0x22, 0x3e,
  0x77, 0xcf, 0x5a, 0x3f, 0xb5, 0x8b, 0xb6, 0x3e, 0x52, 0xca, 0xd2, 0xbd,
  0xd3, 0xc3, 0x17, 0xbe, 0xbe, 0x9f, 0x72, 0x3e, 0x3a, 0x58, 0x08, 0xbe,
  0x5d, 0xf6, 0x17, 0x3f, 0xb2, 0x7a, 0x33, 0x3f, 0x1c, 0xe7, 0x6f, 0x3e,
  0x0a, 0xb3, 0x9f, 0xbd, 0x41, 0xb4, 0xdf, 0x3e, 0x77, 0xc8, 0xec, 0x3c,
  0x4f, 0x76, 0x2d, 0xbd, 0x8a, 0x87, 0xd1, 0xbe, 0x93, 0xa7, 0x0b, 0xbe,
  0x46, 0xab, 0x93, 0xbe, 0xf2, 0x7d, 0x3f, 0xbe, 0xaa, 0x34, 0x69, 0xbe,
  0x4f, 0xdf, 0xfb, 0xbe, 0x20, 0x86, 0x67, 0xbe, 0x65, 0x60, 0xd9, 0xbe,
  0x88, 0x05, 0xe7, 0xbd, 0xe2, 0x0e, 0xd3, 0xbc, 0x42, 0xb2, 0xf3, 0x3c,
  0xe7, 0xde, 0x88, 0xbe, 0x4d, 0x12, 0x33, 0xbe, 0x2c, 0x12, 0x73, 0x3c,
  0x82, 0x44, 0xb1, 0xbd, 0x35, 0x1b, 0x40, 0xbe, 0x9d, 0xb5, 0x1b, 0x3d,
  0x23, 0xe5, 0x2f, 0xbe, 0x08, 0x99, 0x0b, 0xbc, 0xb9, 0x8e, 0xb0, 0x3e,
  0x48, 0xea, 0x42, 0xbe, 0xc9, 0xcc, 0x4e, 0xbe, 0xf2, 0x2f, 0x5f, 0xbc,
  0xce, 0x30, 0x9e, 0xbe, 0x59, 0xbf, 0xa0, 0xbe, 0xbe, 0x9f, 0xb1, 0x3d,
  0xdb, 0xc7, 0x74, 0x3e, 0x0b, 0x61, 0xcc, 0xbc, 0x92, 0x07, 0xcc, 0xbe,
  0x73, 0x5b, 0x0b, 0xbd, 0x24, 0xdc, 0x78, 0xbc, 0x68, 0xcf, 0x8f, 0x3d,
  0x45, 0x8a, 0x2d, 0xbe, 0x78, 0xc1, 0x99, 0xbe, 0x62, 0xb7, 0x1f, 0x3e,
  0x5a, 0x60, 0xbd, 0x3e, 0xf2, 0xec, 0x6c, 0xbe, 0xf9, 0x70, 0x8f, 0xbe,
  0x21, 0x9e, 0xe6, 0xbd, 0x76, 0x29, 0x89, 0xbe, 0xb0, 0x17, 0xde, 0xbc,
  0x04, 0xa0, 0xb7, 0x3d, 0x0d, 0xed, 0x57, 0x3f, 0xec, 0x90, 0xfc, 0x3d,
  0x46, 0x2a, 0x53, 0xbd, 0x77, 0x58, 0x11, 0x3d, 0x45, 0x6a, 0xa2, 0x3d,
  0x94, 0xcc, 0xfb, 0x3d, 0x8c, 0x9f, 0x91, 0xbd, 0x39, 0x6a, 0x2d, 0x3e,
  0x19, 0xb7, 0x9e, 0xbd, 0x74, 0xcf, 0xed, 0x3e, 0x8c, 0x62, 0x20, 0xbe,
  0x98, 0x4c, 0xb8, 0xbe, 0x38, 0xd2, 0x11, 0xbe, 0x67, 0xed, 0x67, 0x3e,
  0x1d, 0xd6, 0x0a, 0xbe, 0x24, 0x16, 0x77, 0x3d, 0x2c, 0x92, 0x60, 0x3f,
  0x61, 0x5e, 0x3c, 0x3f, 0x86, 0xcd, 0x92, 0xbe, 0xf8, 0xf6, 0x1b, 0xbe,
  0x32, 0x6c, 0xd9, 0x3d, 0xc7, 0x05, 0x48, 0xbe, 0xa9, 0xa3, 0xe5, 0x3e,
  0xe5, 0xc9, 0x0b, 0x3e, 0x29, 0xfd, 0x23, 0xbe, 0x5b, 0xcb, 0x4a, 0x3e,
  0x6f, 0xd0, 0x83, 0xbe, 0x0b, 0x55, 0xae, 0xbe, 0x18, 0xe7, 0x6d, 0xbe,
  0xf7, 0x08, 0x5d, 0x3a, 0x35, 0x4f, 0x58, 0xbe, 0xc1, 0x7e, 0x20, 0xbe,
  0xf6, 0xd9, 0x82, 0x3f, 0xf9, 0x7d, 0x9c, 0x3e, 0x77, 0x1c, 0x2b, 0xbe,
  0x7a, 0x1a, 0x12, 0xbe, 0xab, 0x47, 0xc4, 0x3d, 0x7b, 0x8b, 0x13, 0x3b,
  0xb0, 0x97, 0xb4, 0xbd, 0x37, 0x18, 0x80, 0x3d, 0xc2, 0x21, 0xe1, 0xbd,
  0x19, 0x88, 0x74, 0x3e, 0xc0, 0x7f, 0x83, 0xbe, 0xbf, 0x51, 0xde, 0xbd,
  0x86, 0xf3, 0x01, 0x3d, 0xa0, 0x74, 0x79, 0xbe, 0x6e, 0x2e, 0xbf, 0x3d,
  0xa6, 0x6c, 0x85, 0x3c, 0x68, 0x96, 0x5a, 0x3f, 0x3a, 0x62, 0x2e, 0x3f,
  0xb2, 0x28, 0x84, 0xbc, 0x7e, 0x56, 0xc4, 0x3d, 0x23, 0xe1, 0x71, 0xbe,
  0x9a, 0x25, 0xe8, 0xbd, 0x68, 0x94, 0xcc, 0xbe, 0x57, 0x70, 0x8f, 0xbe,
  0x4e, 0x8b, 0x48, 0xbd, 0x80, 0x59, 0xd2, 0xbb, 0x3a, 0x53, 0xcd, 0xbe,
  0x85, 0x1e, 0xfe, 0xbe, 0xca, 0xa5, 0x8d, 0xbe, 0x89, 0x49, 0x32, 0xbe,
  0x98, 0x01, 0x99, 0xbe, 0xec, 0x4c, 0xd1, 0x3d, 0x07, 0x9b, 0x2f, 0x3e,
  0x81, 0xa1, 0x75, 0xbe, 0x10, 0x88, 0x59, 0xbe, 0x89, 0xe9, 0xfb, 0xbe,
  0xd2, 0xec, 0x9b, 0xbe, 0xb3, 0x13, 0x20, 0x3e, 0x76, 0x0b, 0x21, 0x3b,
  0x56, 0x7e, 0x83, 0xbe, 0xa5, 0x65, 0x2c, 0x3f, 0xd1, 0xc8, 0xa4, 0x3e,
  0xf8, 0xf1, 0xbf, 0x3e, 0x0c, 0x7e, 0xcc, 0xbd, 0x0e, 0xc5, 0x80, 0xbd,
  0x0d, 0xe3, 0x3f, 0x3e, 0xaf, 0x6a, 0xf4, 0x3e, 0x07, 0xbb, 0x9f, 0x3d,
  0x5a, 0xcd, 0x1b, 0x3e, 0xf4, 0x33, 0xb7, 0x3e, 0x9f, 0x9a, 0xc1, 0x3b,
  0x43, 0x04, 0x18, 0x3e, 0xa1, 0x7c, 0x18, 0xbe, 0xe0, 0xbe, 0x80, 0xbe,
  0xd8, 0x9e, 0x54, 0xbe, 0xda, 0xe9, 0xa7, 0xbe, 0xe3, 0xbb, 0xb6, 0x3e,
  0x38, 0xac, 0xd2, 0x3e, 0x62, 0x85, 0x77, 0x3e, 0x6d, 0x7a, 0x49, 0x3c,
  0xb8, 0x65, 0xb2, 0x3c, 0xd6, 0xbb, 0xab, 0x3d, 0x2d, 0x13, 0x7b, 0x3e,
  0xb6, 0x1d, 0x87, 0xbc, 0xd6, 0x26, 0xab, 0x3d, 0x4f, 0x23, 0x27, 0x3f,
  0x05, 0x62, 0xab, 0xbb, 0xcc, 0x32, 0x70, 0x3d, 0x4d, 0xa3, 0xaf, 0xbd,
  0x5d, 0x85, 0x05, 0xbf, 0xd1, 0xc7, 0x5f, 0xbd, 0x50, 0xf4, 0xf3, 0xbd,
  0xea, 0x26, 0xf4, 0xbe, 0xd7, 0xcd, 0x65, 0xbb, 0x1d, 0x2c, 0x67, 0xbd,
  0x47, 0x0b, 0x96, 0x3e, 0x8b, 0x90, 0x01, 0x3e, 0x04, 0x17, 0xe0, 0xbc,
  0xa9, 0x59, 0x84, 0x3e, 0xbc, 0x2d, 0x36, 0x3e, 0x8c, 0x2c, 0x11, 0xbe,
  0xc9, 0x70, 0x91, 0x3e, 0x3e, 0x18, 0xb3, 0xbd, 0x6d, 0x98, 0x9d, 0x3e,
  0xb2, 0x19, 0x23, 0xbd, 0x29, 0x53, 0xb6, 0xbe, 0xd1, 0x64, 0x1e, 0xbe,
  0xb1, 0x78, 0x66, 0xbe, 0x26, 0x89, 0x03, 0xbe, 0xb9, 0xe8, 0xe0, 0x3e,
  0xf4, 0x45, 0x6d, 0x3c, 0x84, 0x7f, 0x54, 0x3b, 0xbb, 0x00, 0x9f, 0x3d,
  0x56, 0x38, 0x89, 0xbc, 0x61, 0xca, 0xaf, 0x3e, 0xb7, 0xe8, 0x65, 0x3e,
  0x9c, 0x72, 0x0b, 0x3e, 0x3d, 0x28, 0xa6, 0x3d, 0xfb, 0x5f, 0x00, 0x3d,
  0x2e, 0xd2, 0x87, 0x3d, 0xd5, 0x38, 0xc0, 0xbe, 0x79, 0xf7, 0xa2, 0xbe,
  0x2a, 0x35, 0x1e, 0xbe, 0x08, 0xd4, 0xa2, 0xbe, 0x0b, 0x19, 0xd5, 0x3d,
  0x1d, 0xae, 0xa7, 0x3e, 0x90, 0x0f, 0x59, 0xbc, 0xfd, 0x68, 0xf7, 0xbd,
  0xac, 0x18, 0x83, 0xbb, 0xc1, 0x55, 0xb1, 0x3d, 0x3e, 0xc6, 0xd0, 0x3c,
  0x78, 0x29, 0x9a, 0x3e, 0x79, 0x87, 0x94, 0x3e, 0x67, 0x3d, 0xdb, 0x3e,
  0x6d, 0x58, 0xcb, 0x3b, 0xa7, 0x4d, 0xd0, 0x3c, 0x9c, 0xa8, 0x57, 0xbe,
  0x08, 0x62, 0x2b, 0xbe, 0xd7, 0x50, 0x5e, 0xbd, 0x92, 0x78, 0xa1, 0xbe,
  0x45, 0x3c, 0xb7, 0x3d, 0x2b, 0xca, 0x1f, 0x3f, 0xf4, 0x15, 0x4a, 0x3e,
  0x4f, 0x00, 0x0c, 0xbd, 0xf4, 0xd8, 0x47, 0xbe, 0x24, 0x72, 0x60, 0x3d,
  0x71, 0x71, 0x64, 0x3e, 0x4c, 0xac, 0x95, 0x3e, 0x18, 0x6b, 0x7c, 0x3d,
  0x35, 0xb3, 0x70, 0x3e, 0x0e, 0x53, 0x8b, 0xbc, 0x9e, 0x0c, 0x21, 0x3e,
  0x20, 0xa6, 0x6c, 0xbd, 0x7c, 0xfa, 0x98, 0x3d, 0x84, 0x8d, 0xfc, 0xbd,
  0x9c, 0x37, 0xba, 0xbc, 0x63, 0xd6, 0x1d, 0x3a, 0xc7, 0x5d, 0x24, 0x3e,
  0x56, 0x95, 0x0c, 0x3e, 0x64, 0x0f, 0x26, 0x3c, 0xb2, 0x3a, 0x86, 0xbc,
  0xbb, 0x16, 0x1c, 0x3e, 0xd1, 0x2f, 0x8f, 0x3e, 0x2d, 0x3b, 0x55, 0x3f,
  0xa5, 0x90, 0xa6, 0x3e, 0x45, 0x03, 0xd5, 0x3d, 0x69, 0x36, 0x0c, 0x3e,
  0x4e, 0xb9, 0xd6, 0x3e, 0xc9, 0xf6, 0x08, 0xbe, 0x19, 0x31, 0xb4, 0x3d,
  0xac, 0x1b, 0xb3, 0xbe, 0x31, 0x55, 0x60, 0xbd, 0xb0, 0xca, 0x83, 0xbd,
  0x09, 0x09, 0xe9, 0xbd, 0xd0, 0x2b, 0x64, 0xbe, 0xd7, 0xc1, 0x3a, 0xbe,
  0x4d, 0x24, 0xbb, 0xbd, 0xae, 0x76, 0xe3, 0xbe, 0x5b, 0x06, 0xdb, 0xbe,
  0x6e, 0xac, 0x3b, 0x3e, 0xb8, 0x79, 0x0d, 0x3f, 0x57, 0x7c, 0xdf, 0x3e,
  0xf9, 0x4f, 0x1c, 0xbe, 0x34, 0x5a, 0x45, 0xbe, 0xe1, 0x7e, 0xf5, 0xbd,
  0x4c, 0xb6, 0x12, 0x3f, 0x7c, 0x99, 0x19, 0xbe, 0xb9, 0x40, 0x6e, 0x3c,
  0x66, 0xc9, 0x30, 0x3e, 0x7b, 0xc2, 0x81, 0x3d, 0xef, 0x10, 0xfe, 0xbc,
  0x42, 0x75, 0xd0, 0xbd, 0x1a, 0x45, 0x97, 0xbe, 0x9d, 0x71, 0xc6, 0xbe,
  0x69, 0x71, 0xcd, 0xbb, 0xcb, 0xad, 0xbc, 0x3e, 0xcc, 0x99, 0x17, 0x3f,
  0xc1, 0xfe, 0xa6, 0x3e, 0xf1, 0x97, 0x67, 0xbe, 0x2c, 0x69, 0xc6, 0x3a,
  0x32, 0x6e, 0x8d, 0x3a, 0xf9, 0xc7, 0x28, 0x3e, 0x85, 0xea, 0x81, 0xbe,
  0x49, 0x39, 0xc2, 0x3d, 0xde, 0xc5, 0xb0, 0x3d, 0x03, 0xb7, 0x6c, 0xbe,
  0x8d, 0x25, 0xd5, 0xbd, 0x8e, 0xd4, 0x85, 0xbe, 0xe9, 0x45, 0xff, 0xbd,
  0x32, 0x08, 0x73, 0xbd, 0xf6, 0xca, 0x32, 0x3c, 0x7a, 0x67, 0x87, 0xbc,
  0x8d, 0xb5, 0xfa, 0x3e, 0xc7, 0x59, 0xd1, 0x3e, 0xa7, 0x68, 0x78, 0xbb,
  0x65, 0x88, 0x1a, 0xbe, 0xd3, 0x5b, 0xbd, 0xbd, 0x4c, 0xfc, 0x83, 0x3e,
  0xd9, 0xab, 0xe8, 0x3e, 0xad, 0x16, 0x25, 0x3e, 0xed, 0x9f, 0x8c, 0x3b,
  0x50, 0xb9, 0xc0, 0xbd, 0xbe, 0x8f, 0x40, 0x3d, 0x68, 0x68, 0x97, 0xbe,
  0x6d, 0x5a, 0x1a, 0xbe, 0x83, 0xf6, 0x07, 0x3e, 0x9f, 0x6e, 0xd1, 0x3c,
  0x43, 0xfe, 0xb6, 0x3d, 0x62, 0x25, 0x1a, 0x3f, 0x2f, 0x30, 0x32, 0x3f,
  0x13, 0x4a, 0x29, 0xbe, 0x56, 0x46, 0xb7, 0xbc, 0x7c, 0xfd, 0xa4, 0x3d,
  0xaf, 0x69, 0x8d, 0x3d, 0xe3, 0x5a, 0x59, 0xbe, 0xc4, 0x99, 0xc2, 0x3d,
  0x51, 0x93, 0x37, 0x3d, 0xdb, 0x5c, 0x93, 0x3d, 0xe7, 0x5f, 0x4b, 0x3c,
  0xc4, 0x85, 0x63, 0xbe, 0x61, 0x7e, 0xa9, 0xbe, 0xee, 0x7d, 0xf6, 0xbd,
  0xbb, 0xc7, 0x18, 0x3e, 0xd0, 0x2b, 0x22, 0x3e, 0x2b, 0x97, 0xfb, 0x3e,
  0xd4, 0x43, 0x4d, 0x3f, 0x78, 0xc7, 0x67, 0xbe, 0xed, 0xbf, 0x48, 0x3e,
  0x30, 0x40, 0x4c, 0x3e, 0x49, 0x46, 0xfe, 0x3d, 0xa1, 0xff, 0x7b, 0xbc,
  0x9c, 0x3a, 0x2b, 0x3e, 0xbe, 0x44, 0xa8, 0x3e, 0xd6, 0x09, 0x2b, 0xbe,
  0x98, 0xcd, 0xc3, 0x3d, 0xf8, 0x2b, 0x75, 0x3d, 0x8f, 0xf2, 0x8d, 0x3c,
  0x84, 0x7c, 0x69, 0xbe, 0x56, 0xc3, 0x82, 0x3e, 0xca, 0xd8, 0x50, 0x3e,
  0x16, 0x97, 0x0e, 0x3f, 0xbe, 0x6b, 0x2a, 0x3f, 0x46, 0x72, 0xcd, 0xbe,
  0x98, 0xf4, 0x6c, 0x3e, 0x32, 0xc6, 0xe5, 0xbe, 0xf9, 0x95, 0x64, 0x3d,
  0x96, 0x2e, 0xd5, 0xbe, 0xdb, 0xeb, 0x5d, 0xbe, 0x61, 0xff, 0xdb, 0xbd,
  0xbd, 0xb5, 0xdd, 0xbd, 0x63, 0xac, 0xba, 0xbe, 0x43, 0x0d, 0xf0, 0xbe,
  0xa4, 0x03, 0xdd, 0xbe, 0x84, 0xd1, 0xfd, 0xbe, 0x82, 0xc0, 0x50, 0xbe,
  0x4d, 0x4a, 0x09, 0xbe, 0xe0, 0xa6, 0xee, 0x3e, 0x7d, 0xfe, 0x75, 0xbd,
  0x08, 0x96, 0x11, 0xbf, 0x3e, 0xc5, 0x4d, 0xbe, 0x67, 0x74, 0xa2, 0x3e,
  0x1b, 0xe8, 0x67, 0xbe, 0xb3, 0x32, 0x07, 0xbe, 0x55, 0xca, 0x11, 0x3e,
  0xb9, 0xc0, 0xab, 0xbe, 0x74, 0x02, 0x29, 0xbe, 0xf4, 0x77, 0x03, 0xbf,
  0x55, 0xc2, 0xeb, 0x3d, 0xfd, 0xe2, 0x9a, 0xbc, 0x91, 0xca, 0xfc, 0xbe,
  0x94, 0x66, 0x66, 0xbf, 0x1d, 0x60, 0x2e, 0xbe, 0x28, 0x5c, 0x83, 0xbe,
  0x5b, 0x2d, 0x39, 0xbe, 0xfb, 0xb4, 0x64, 0x3d, 0x46, 0x6b, 0x16, 0xbe,
  0x2e, 0xb0, 0x97, 0x3e, 0x8e, 0xf9, 0x12, 0x3f, 0x64, 0x8e, 0x04, 0x3e,
  0xac, 0x1b, 0x5d, 0x3e, 0xf1, 0x10, 0x20, 0x3e, 0xd0, 0x6c, 0x88, 0xbd,
  0xec, 0x42, 0x80, 0xbe, 0x67, 0x7c, 0x5b, 0x3e, 0xfe, 0x03, 0x1b, 0xbe,
  0xed, 0x4c, 0xe1, 0xbd, 0xee, 0x41, 0x79, 0xbe, 0x35, 0x1d, 0xd6, 0xbe,
  0x45, 0xf5, 0xc0, 0xbe, 0x3d, 0x9a, 0xb4, 0xbd, 0x9b, 0xc1, 0xbb, 0xbd,
  0x6b, 0x58, 0x78, 0x3e, 0xde, 0xe1, 0xbd, 0x3e, 0x69, 0x97, 0x37, 0x3f,
  0xfd, 0x9c, 0x82, 0x3e, 0x1d, 0xd9, 0x13, 0x3e, 0x27, 0x0e, 0xad, 0x3e,
  0x8f, 0x18, 0x80, 0xbc, 0xda, 0xd3, 0xb1, 0x38, 0xb3, 0x56, 0x56, 0xbd,
  0x09, 0x6e, 0xe4, 0x3d, 0x88, 0x9c, 0x21, 0xbc, 0xaa, 0x06, 0x27, 0xbe,
  0xa2, 0x90, 0x6a, 0xbb, 0x57, 0x8d, 0x9b, 0xbe, 0x54, 0x18, 0x09, 0xbb,
  0xa5, 0x7d, 0x6e, 0x3d, 0x36, 0x60, 0xdb, 0xbd, 0xd8, 0xa9, 0xaa, 0x3e,
  0xa2, 0xb5, 0x07, 0x3f, 0x68, 0x38, 0xb0, 0x3d, 0x61, 0xc4, 0x3a, 0x3e,
  0xda, 0x0b, 0x71, 0x3e, 0x85, 0x02, 0x99, 0x3d, 0x0d, 0x13, 0x80, 0xbe,
  0x22, 0xac, 0x0d, 0x3e, 0x35, 0x75, 0x39, 0x3c, 0x89, 0x82, 0x62, 0x3e,
  0xda, 0x10, 0xbb, 0xbe, 0xd4, 0x36, 0x52, 0xbe, 0x91, 0xda, 0x24, 0xbf,
  0xa8, 0x74, 0x85, 0x3d, 0x43, 0x96, 0x87, 0x3d, 0x49, 0x04, 0x18, 0x3e,
  0x10, 0xaa, 0xec, 0x3e, 0x90, 0x36, 0x89, 0x3e, 0x0b, 0x95, 0x0a, 0x3e,
  0x1a, 0x4c, 0xb4, 0x3e, 0x51, 0x2d, 0x5c, 0x3e, 0xd0, 0xaf, 0xfc, 0x3c,
  0xce, 0x38, 0x10, 0xbb, 0xd4, 0x71, 0x2c, 0x3d, 0xac, 0x51, 0x38, 0xbd,
  0xf4, 0x4d, 0x1d, 0xbe, 0x2a, 0xd7, 0x86, 0xbe, 0xef, 0xb7, 0xcb, 0xbe,
  0xb1, 0x87, 0x34, 0xbe, 0x50, 0x75, 0x40, 0x3e, 0x25, 0xf5, 0xb2, 0xbd,
  0x1a, 0x53, 0x16, 0x3e, 0x04, 0xb1, 0x88, 0x3e, 0x4a, 0xd1, 0x5b, 0x3e,
  0x0e, 0x00, 0xac, 0x3d, 0xeb, 0xac, 0xbd, 0x3e, 0xd3, 0x46, 0x10, 0x3e,
  0xf3, 0x40, 0x75, 0xbe, 0x22, 0x1f, 0x8d, 0xbd, 0x37, 0x93, 0x8d, 0xbd,
  0xf7, 0x5a, 0x92, 0x3d, 0x67, 0xc6, 0x11, 0xbe, 0x19, 0x4b, 0x7d, 0xbe,
  0xbf, 0xf3, 0x62, 0xbe, 0x11, 0x99, 0xa4, 0xbd, 0x36, 0xae, 0x85, 0xbd,
  0x40, 0x3c, 0xb3, 0x3d, 0xfb, 0x4b, 0x60, 0xbd, 0x33, 0x91, 0xdb, 0xbd,
  0x20, 0x69, 0x65, 0x3e, 0x6b, 0x8d, 0x16, 0x3b, 0x6a, 0xba, 0xcf, 0x3b,
  0x36, 0x90, 0xa3, 0xbc, 0x65, 0xc6, 0x3a, 0xbe, 0x63, 0x6b, 0x3d, 0xbd,
  0x1b, 0x1a, 0xbc, 0xbd, 0x2e, 0xcf, 0xe0, 0xbd, 0x02, 0x63, 0x04, 0xbd,
  0x20, 0xb0, 0xaa, 0xbd, 0x1a, 0x9a, 0x02, 0xbe, 0xe5, 0xc4, 0x54, 0x3e,
  0x14, 0x1d, 0xb1, 0xbd, 0x8e, 0x13, 0xad, 0xbb, 0x2e, 0x8a, 0xd7, 0xbd,
  0x12, 0xce, 0x7b, 0x3e, 0x66, 0xf8, 0x17, 0x3d, 0xc5, 0xca, 0xc0, 0xbd,
  0xbd, 0x95, 0x1d, 0xbe, 0xc0, 0xab, 0x7b, 0xbe, 0x27, 0x98, 0x9c, 0xbd,
  0xaf, 0x09, 0x0e, 0xbd, 0x61, 0xc7, 0x65, 0x3d, 0xf2, 0xe6, 0xcd, 0xbd,
  0xd2, 0x37, 0x63, 0xbd, 0x71, 0x5c, 0x84, 0xbe, 0x12, 0x04, 0x3c, 0xbe,
  0x31, 0x6a, 0x06, 0xbe, 0x99, 0x20, 0x4c, 0xbe, 0x2e, 0x13, 0x00, 0x3b,
  0xa4, 0x98, 0xa4, 0xbd, 0x5b, 0x82, 0x8e, 0x3e, 0x49, 0x61, 0xcd, 0x3e,
  0xbd, 0xbe, 0xfa, 0xbd, 0x38, 0x16, 0xc3, 0xbd, 0x7b, 0x31, 0x17, 0x3d,
  0x86, 0xc1, 0x35, 0xbb, 0x7b, 0x02, 0x23, 0xbe, 0x0f, 0xcd, 0x1b, 0xbe,
  0x59, 0x57, 0xc1, 0xbd, 0xbf, 0x48, 0x03, 0x3d, 0xd0, 0x8e, 0xe2, 0x3c,
  0xb4, 0xee, 0xca, 0x3a, 0xff, 0xf1, 0x1b, 0x3f, 0x5e, 0x6d, 0x04, 0x3f,
  0xc3, 0xe5, 0x3d, 0xbd, 0x94, 0x8b, 0x0b, 0xbd, 0xc4, 0xc7, 0xec, 0x3e,
  0x62, 0x4e, 0x20, 0x3f, 0x8f, 0xea, 0x8c, 0x3d, 0xd0, 0xaa, 0x75, 0x3e,
  0xc6, 0xe0, 0x97, 0x3e, 0xd4, 0xa2, 0xbc, 0x3c, 0x48, 0xae, 0xda, 0xbe,
  0x8f, 0xb3, 0x07, 0xbe, 0x98, 0x21, 0xaa, 0xbd, 0xbb, 0x71, 0x1b, 0xbd,
  0x2d, 0xba, 0x9a, 0xbe, 0x8b, 0xf2, 0x32, 0x3d, 0x5b, 0xab, 0x5e, 0x3f,
  0xd5, 0x60, 0x5f, 0x3e, 0xa4, 0xe7, 0x8c, 0xbc, 0xb1, 0x97, 0x0f, 0xbe,
  0xcd, 0x56, 0x6b, 0x3e, 0xbc, 0x53, 0x12, 0x3f, 0x0f, 0xc1, 0xf3, 0x3e,
  0xfe, 0xaa, 0xaf, 0x3e, 0x38, 0x9d, 0x03, 0x3e, 0xd7, 0x76, 0x44, 0x3e,
  0x39, 0x1b, 0xea, 0xbc, 0x6a, 0x6c, 0xd2, 0xbc, 0xcc, 0xe4, 0xc8, 0x3c,
  0x44, 0x7e, 0x5e, 0xbe, 0x87, 0x5f, 0x25, 0xbf, 0x7d, 0x28, 0x93, 0xbe,
  0xd4, 0xf5, 0x27, 0x3f, 0x1a, 0xe2, 0x0f, 0x3e, 0xc6, 0x9d, 0x05, 0x3e,
  0xd8, 0xaa, 0x8f, 0xbd, 0xaa, 0xeb, 0xf9, 0x3e, 0x76, 0xc1, 0xb0, 0x3e,
  0xd6, 0x95, 0x55, 0x3e, 0xd6, 0xab, 0x01, 0x3f, 0xbe, 0xd2, 0x95, 0x3b,
  0xd7, 0x0d, 0x14, 0xbe, 0xa1, 0x78, 0xab, 0xbd, 0x01, 0x8a, 0xc3, 0x3e,
  0xf4, 0x1d, 0x3d, 0x3e, 0x32, 0x90, 0x04, 0xbe, 0x6e, 0x62, 0x98, 0xbe,
  0xe5, 0x0e, 0x9e, 0xbe, 0x66, 0xd9, 0x5a, 0x3e, 0x41, 0xa9, 0x19, 0x3e,
  0xac, 0x5d, 0xf0, 0x3d, 0x75, 0xc8, 0xfe, 0x3d, 0xe8, 0x51, 0xe3, 0x3e,
  0x9f, 0x38, 0x66, 0x3e, 0x35, 0x95, 0x9d, 0x3d, 0x11, 0xd0, 0x97, 0x3e,
  0x5b, 0xd9, 0x9f, 0xbd, 0x04, 0x50, 0x45, 0xbe, 0x0b, 0x33, 0xc6, 0xbe,
  0x53, 0x15, 0xf3, 0xbd, 0xfe, 0x50, 0x01, 0xbe, 0xef, 0x8a, 0x44, 0xbe,
  0x2e, 0x3b, 0x96, 0xbe, 0xce, 0xbf, 0x0c, 0xbf, 0x0f, 0xbf, 0x0a, 0x3f,
  0xb5, 0x70, 0x8a, 0x3e, 0x0e, 0x32, 0x74, 0xbe, 0xb7, 0x00, 0x3b, 0xbc,
  0x8c, 0x6b, 0x37, 0xbe, 0xeb, 0x10, 0xc7, 0x3e, 0xce, 0x20, 0xe3, 0xbc,
  0x08, 0x4b, 0xeb, 0xbd, 0x28, 0xea, 0x1e, 0xbe, 0x76, 0xe2, 0xff, 0x3d,
  0x21, 0x4a, 0x24, 0x3d, 0x3a, 0x81, 0xaf, 0xbd, 0xd5, 0x94, 0xc7, 0xbd,
  0x8d, 0x04, 0x20, 0xbe, 0x3b, 0xdc, 0x65, 0xbd, 0x19, 0x35, 0x26, 0xbe,
  0x01, 0x2c, 0x30, 0x3e, 0xf2, 0x75, 0x40, 0xbd, 0x24, 0x5f, 0xcc, 0x3c,
  0xa5, 0x13, 0x86, 0xbe, 0x6b, 0xf9, 0xf5, 0x3a, 0x16, 0x63, 0x0e, 0xbe,
  0xc8, 0xeb, 0x76, 0xbe, 0x01, 0x88, 0xb2, 0xbd, 0x45, 0xf5, 0x86, 0xbe,
  0x06, 0x06, 0x83, 0xbe, 0xf7, 0xba, 0x79, 0xbe, 0xa5, 0xaa, 0xf3, 0xbe,
  0x22, 0xc9, 0x82, 0xbe, 0xca, 0xec, 0x6a, 0xbe, 0x13, 0xd3, 0x4a, 0xbe,
  0xf5, 0x06, 0x12, 0x3e, 0x4f, 0xf3, 0x0d, 0x3f, 0x67, 0xa9, 0x52, 0x3d,
  0xf5, 0x3c, 0xe8, 0xbe, 0xe6, 0xa6, 0x9e, 0x3d, 0xb3, 0x80, 0x95, 0xbe,
  0xb0, 0x44, 0xf1, 0xbd, 0xd5, 0x15, 0xd5, 0xbd, 0x74, 0xc9, 0xf0, 0x3d,
  0x54, 0x6e, 0x0b, 0xbe, 0x6a, 0x67, 0x09, 0x3e, 0xe9, 0x28, 0x62, 0xbd,
  0x5f, 0x9e, 0x02, 0xbf, 0x50, 0xb2, 0x9b, 0xbe, 0xc1, 0xbb, 0x0e, 0xbe,
  0x32, 0x40, 0x33, 0xbe, 0x42, 0x6e, 0x83, 0x3d, 0x5b, 0x9e, 0x61, 0x3f,
  0xe5, 0xba, 0x27, 0x3d, 0x2c, 0xc6, 0xda, 0xbe, 0x39, 0x84, 0xa3, 0x3e,
  0x61, 0x8c, 0x52, 0xbe, 0xb7, 0x52, 0x47, 0xbd, 0xb2, 0xb7, 0xc4, 0x3c,
  0xae, 0x87, 0x87, 0xbe, 0x92, 0x45, 0x06, 0x3e, 0xd7, 0x2c, 0x50, 0xbd,
  0x13, 0x6a, 0xae, 0xbe, 0xa0, 0xe1, 0x48, 0xbe, 0xa4, 0xba, 0xe3, 0xbc,
  0x8e, 0x5f, 0x7a, 0xbe, 0x24, 0xb9, 0x2f, 0xbd, 0xd9, 0xd3, 0xed, 0x3d,
  0x95, 0xc1, 0x11, 0x3f, 0xcb, 0x1c, 0x75, 0x3f, 0x8c, 0x5e, 0xa8, 0xbe,
  0x76, 0x55, 0x15, 0xbe, 0xe4, 0x3a, 0xcd, 0xbd, 0x11, 0x97, 0x5c, 0xbe,
  0x4b, 0x59, 0x51, 0x3d, 0x74, 0x8e, 0xf8, 0x3c, 0xf2, 0x8c, 0x79, 0xbe,
  0x61, 0x74, 0xa0, 0xbb, 0x19, 0xf9, 0x46, 0xbe, 0xdb, 0x70, 0x9e, 0xbe,
  0xc5, 0x96, 0x41, 0xbe, 0xe3, 0xaf, 0xd3, 0x3d, 0xc2, 0xbe, 0x33, 0xbd,
  0x6e, 0x73, 0x73, 0x3e, 0x74, 0x7f, 0x09, 0x3f, 0x59, 0x49, 0x82, 0x3e,
  0x09, 0x12, 0xaf, 0xbe, 0x9a, 0xf2, 0xf7, 0xbd, 0xfc, 0xd4, 0x23, 0x3d,
  0x1a, 0x63, 0xe7, 0xbd, 0xd6, 0x54, 0xfd, 0xbd, 0xd7, 0xc7, 0x43, 0xbe,
  0xa3, 0x71, 0x86, 0xbe, 0xc2, 0xeb, 0x29, 0x3e, 0x2a, 0x98, 0xe1, 0xbd,
  0x72, 0x6b, 0x38, 0xbe, 0x42, 0x10, 0xf6, 0xbd, 0x16, 0x92, 0x79, 0x3d,
  0x3a, 0xc5, 0x2a, 0xbd, 0x5e, 0x09, 0x1d, 0x3e, 0x8e, 0x09, 0x79, 0x3f,
  0x6d, 0x50, 0x74, 0x3f, 0x51, 0x36, 0x1c, 0xbe, 0x4e, 0x3c, 0x35, 0x3e,
  0x4d, 0x84, 0x4e, 0xbe, 0x62, 0x65, 0x39, 0xbd, 0x42, 0x6d, 0x16, 0xbe,
  0x7b, 0x25, 0x9d, 0x3d, 0xbf, 0xa7, 0xb0, 0xbd, 0x0b, 0x9c, 0x33, 0xbe,
  0x87, 0x84, 0x55, 0xbe, 0x08, 0xdd, 0x6f, 0xbe, 0x53, 0xa2, 0x8f, 0xbe,
  0x68, 0xa3, 0x1e, 0xbe, 0x46, 0xfb, 0x39, 0x3e, 0x54, 0x4e, 0x5d, 0x3e,
  0x38, 0x18, 0x80, 0x3f, 0xfe, 0x03, 0x84, 0x3f, 0x74, 0x5b, 0xbc, 0xbe,
  0x42, 0x39, 0x56, 0x3e, 0x1c, 0x28, 0x14, 0xbd, 0xc2, 0x0c, 0xd2, 0xbd,
  0x79, 0xd9, 0xe9, 0xbe, 0x83, 0x68, 0xb0, 0xbe, 0x6a, 0x00, 0x87, 0xbc,
  0x08, 0x57, 0x65, 0xbd, 0x35, 0xd8, 0xcc, 0xbe, 0x6b, 0x28, 0xe4, 0xbe,
  0x65, 0x25, 0xf2, 0xbd, 0x00, 0x3e, 0x0b, 0xbf, 0xc9, 0x47, 0xba, 0xbe,
  0xd2, 0xa0, 0x41, 0xbd, 0xce, 0xdd, 0x24, 0x3d, 0xc3, 0x9e, 0x40, 0xbe,
  0x1b, 0xe2, 0xe3, 0xbe, 0xd8, 0xb4, 0x93, 0xbe, 0xa8, 0x5e, 0x7d, 0x3d,
  0x7d, 0x9b, 0x87, 0xbd, 0x6a, 0x51, 0xe0, 0xbc, 0xe2, 0xd3, 0x02, 0xbe,
  0x41, 0x0b, 0xc3, 0xbd, 0x0b, 0x5b, 0x5d, 0xbe, 0x1b, 0xb8, 0xae, 0x3d,
  0x31, 0xf0, 0x08, 0xbe, 0x6b, 0xb0, 0x35, 0xbe, 0xa9, 0x74, 0xcc, 0x3d,
  0x4d, 0x7e, 0x91, 0xbd, 0x67, 0x96, 0x42, 0xbe, 0xed, 0x75, 0x4d, 0xbd,
  0x3c, 0xd7, 0x16, 0xbd, 0x80, 0x9d, 0x38, 0x3d, 0xc9, 0xc7, 0x54, 0x3b,
  0x70, 0x30, 0xda, 0xbd, 0x51, 0x9f, 0x8e, 0xbd, 0xfc, 0x0a, 0x23, 0x3c,
  0xc5, 0x76, 0x75, 0xbe, 0xf0, 0x94, 0xc1, 0xbd, 0xc1, 0xb5, 0x1d, 0xbd,
  0xc8, 0xc1, 0xa2, 0xbd, 0xb0, 0x24, 0x03, 0xbe, 0x6a, 0x31, 0xb3, 0xbd,
  0xbe, 0x2a, 0x9a, 0xbd, 0xd1, 0xf2, 0x05, 0xbe, 0x9b, 0xba, 0x24, 0x3d,
  0x44, 0x85, 0xb4, 0xbd, 0xf6, 0x9c, 0xfa, 0xbc, 0x1f, 0x72, 0xa5, 0xbe,
  0x94, 0x69, 0x00, 0x3e, 0xa9, 0xcd, 0xf0, 0x3d, 0xa3, 0x96, 0x4c, 0xbd,
  0x43, 0xf3, 0xcc, 0xbd, 0x63, 0x5d, 0x40, 0xbe, 0x69, 0x3d, 0xa3, 0x3d,
  0xdd, 0x85, 0x1c, 0x3e, 0x97, 0x1a, 0x29, 0x3d, 0x5f, 0x30, 0x66, 0xbc,
  0xe8, 0x87, 0x16, 0x3d, 0x80, 0x02, 0xb4, 0xbd, 0x35, 0x23, 0x04, 0x3b,
  0xf1, 0xb8, 0x1d, 0xbe, 0x77, 0xf5, 0x29, 0xbe, 0x52, 0xdb, 0x42, 0xbe,
  0x63, 0xda, 0x98, 0xbe, 0xb1, 0x39, 0xa9, 0xbd, 0x2a, 0x59, 0xfc, 0x3d,
  0x32, 0x68, 0x50, 0xbe, 0xfc, 0x9b, 0xeb, 0xbd, 0xcf, 0x02, 0x16, 0x3e,
  0xb2, 0xcc, 0xb7, 0x3d, 0xcc, 0xa6, 0x32, 0x3d, 0x6c, 0xf3, 0x09, 0xbe,
  0x24, 0xc4, 0x99, 0x3d, 0x71, 0x54, 0x89, 0xbe, 0xcf, 0xb1, 0xae, 0xbd,
  0x01, 0xed, 0x0b, 0xbd, 0x59, 0x12, 0x7c, 0x3d, 0xb3, 0xb6, 0x98, 0xbd,
  0x43, 0xf6, 0x66, 0xba, 0x73, 0x0c, 0x02, 0xbe, 0x84, 0x6e, 0x40, 0xbe,
  0x27, 0xe2, 0x7a, 0xbd, 0x40, 0x1f, 0x54, 0xbe, 0x9f, 0xa1, 0xa2, 0x3d,
  0x65, 0xfd, 0x38, 0x3e, 0x86, 0x91, 0xe0, 0x3d, 0x21, 0x8f, 0x3f, 0xbe,
  0xbe, 0x77, 0x05, 0x3e, 0xf7, 0xc5, 0x75, 0xbe, 0x80, 0xc8, 0x24, 0xbe,
  0x9c, 0xf9, 0x80, 0xbd, 0xf1, 0x1f, 0x7d, 0xbe, 0x9b, 0x1d, 0x5d, 0xbe,
  0x9b, 0x95, 0xc6, 0x3d, 0x97, 0x99, 0xee, 0x3d, 0x78, 0x64, 0xaa, 0xbe,
  0x92, 0xaf, 0x27, 0xbe, 0xd9, 0x3d, 0x0f, 0xbe, 0x16, 0x71, 0x4f, 0xbd,
  0x0f, 0xae, 0x5f, 0xbe, 0xbd, 0x3c, 0x27, 0x3d, 0x07, 0xce, 0x07, 0xbe,
  0xf8, 0x40, 0x98, 0xbd, 0xd6, 0xce, 0x97, 0x3d, 0x79, 0x5e, 0x89, 0xbe,
  0xcc, 0xbd, 0x1e, 0xbe, 0x88, 0x6a, 0x5e, 0xbe, 0x4d, 0x52, 0xa9, 0xbd,
  0x35, 0x35, 0x66, 0xbe, 0x23, 0x25, 0x7d, 0x3d, 0xc1, 0xda, 0x3d, 0xbc,
  0xb2, 0x00, 0xa6, 0x3d, 0x60, 0xd3, 0x4a, 0xbe, 0x39, 0xd4, 0xf5, 0xbd,
  0xa8, 0x9c, 0x67, 0xbe, 0x5c, 0x88, 0x52, 0x3c, 0xce, 0x50, 0xf0, 0x3b,
  0x28, 0x46, 0x78, 0xbe, 0xf2, 0x19, 0xe4, 0x3d, 0x51, 0x01, 0x7d, 0xbc,
  0x9a, 0x8e, 0x98, 0xbe, 0x8b, 0x73, 0xfd, 0xbc, 0xb6, 0x43, 0xf3, 0x3c,
  0xa1, 0xa3, 0xdb, 0x3b, 0xa0, 0x41, 0xf1, 0xbd, 0x94, 0xfa, 0x90, 0x3c,
  0x69, 0xbe, 0x8b, 0xbe, 0xb3, 0xbc, 0x9c, 0xbe, 0x44, 0x34, 0x87, 0xbd,
  0x74, 0x8e, 0xee, 0xbe, 0x66, 0x27, 0xa0, 0x3d, 0xe2, 0x35, 0x57, 0x3e,
  0x41, 0xcd, 0xde, 0xbe, 0xbc, 0xb5, 0xe4, 0x3e, 0x35, 0xf8, 0x05, 0x3f,
  0x51, 0xe0, 0xc6, 0x3e, 0xd8, 0x0c, 0x98, 0xbe, 0x68, 0x59, 0x80, 0x3e,
  0x2d, 0x37, 0x99, 0x3e, 0x12, 0x8d, 0x15, 0x3f, 0x49, 0xac, 0x5f, 0x3d,
  0xba, 0xd6, 0x53, 0x3e, 0x0e, 0x8b, 0xb6, 0x3e, 0xbf, 0x85, 0x19, 0xbd,
  0x76, 0x0d, 0x3d, 0x3e, 0x8e, 0x47, 0x07, 0xbf, 0xb5, 0xe4, 0x42, 0xbe,
  0xa5, 0x17, 0xd1, 0xbd, 0xef, 0x7c, 0xe1, 0xbe, 0x64, 0x34, 0x3e, 0xbe,
  0xbc, 0xd5, 0xc4, 0x3e, 0x60, 0x55, 0x0d, 0x3e, 0x58, 0x01, 0x98, 0xbc,
  0x8e, 0x57, 0x44, 0xbb, 0x96, 0xc4, 0x8f, 0xbd, 0x1a, 0x23, 0x9a, 0xbb,
  0x8b, 0xca, 0x77, 0xbd, 0x60, 0xc4, 0x34, 0x3e, 0xf0, 0x65, 0x8a, 0x3e,
  0x34, 0x0f, 0x27, 0xbe, 0x97, 0x74, 0x18, 0x3d, 0xa2, 0x3c, 0x41, 0xbe,
  0xab, 0xb8, 0x01, 0xbf, 0x7a, 0x3d, 0x2d, 0xbd, 0xe8, 0xa8, 0xcb, 0xbd,
  0x12, 0xd6, 0x42, 0xbe, 0x10, 0xf1, 0x1d, 0xbd, 0x87, 0xb8, 0x86, 0x3e,
  0x73, 0xc5, 0x07, 0x3e, 0xa8, 0xf9, 0x36, 0x3d, 0x52, 0xbe, 0xd8, 0xbd,
  0xe7, 0x7b, 0x7f, 0x3e, 0xd0, 0x87, 0x6d, 0x3d, 0x60, 0x81, 0x03, 0xbe,
  0x7c, 0x5b, 0xc1, 0x3e, 0x11, 0xae, 0x3f, 0xbd, 0x37, 0x29, 0xd6, 0x3e,
  0xfa, 0xf0, 0x93, 0xbe, 0xde, 0xf0, 0x9c, 0xbe, 0x1f, 0xf4, 0xb9, 0xbc,
  0x97, 0x12, 0xc6, 0xbe, 0x5b, 0x54, 0x33, 0xbe, 0xcd, 0xc1, 0xd1, 0x3e,
  0x77, 0x27, 0xd1, 0x3d, 0x02, 0x17, 0x76, 0x3d, 0xe5, 0xbd, 0x08, 0x3e,
  0x3b, 0x0f, 0x7c, 0xbd, 0x59, 0x48, 0xab, 0x3e, 0x39, 0xfa, 0x34, 0x3e,
  0x39, 0xe3, 0x25, 0xbe, 0xd7, 0x46, 0xd8, 0x3e, 0x87, 0xe4, 0x43, 0xbe,
  0xc0, 0xd4, 0x15, 0x3e, 0x7c, 0xf8, 0x97, 0xbe, 0xec, 0xa3, 0xb4, 0xbe,
  0xf3, 0x58, 0xea, 0xbd, 0x5b, 0xeb, 0x0b, 0xbf, 0xeb, 0x5b, 0x7f, 0x3d,
  0x46, 0xcb, 0xb7, 0x3e, 0x25, 0xe5, 0xc8, 0x3d, 0x4a, 0x7d, 0x19, 0xbe,
  0x6f, 0xac, 0xb1, 0x3c, 0x9f, 0xb6, 0x78, 0xbd, 0x31, 0x6c, 0xd7, 0x3d,
  0x1f, 0xb9, 0x9d, 0x3c, 0x19, 0x58, 0x9c, 0x3c, 0x29, 0x2f, 0xd0, 0xbd,
  0x2b, 0x39, 0x2a, 0xbe, 0x06, 0xa5, 0x45, 0xbe, 0x30, 0x35, 0x9d, 0xbe,
  0x97, 0x0c, 0xd3, 0xbc, 0xdd, 0xaf, 0x0a, 0xbe, 0x2d, 0xfd, 0x8f, 0xbe,
  0xe3, 0xa2, 0xe4, 0x3d, 0xa0, 0x66, 0xd5, 0x3e, 0x5a, 0x28, 0xca, 0x3e,
  0x7b, 0xb9, 0xcf, 0xbd, 0x2c, 0xb6, 0xba, 0xbd, 0x51, 0x80, 0x17, 0xbc,
  0xd7, 0xa6, 0x98, 0x3e, 0xba, 0xf5, 0xf2, 0x3e, 0x14, 0x2b, 0x75, 0xbc,
  0x9a, 0xe2, 0x97, 0xbc, 0xe9, 0xa1, 0x27, 0xbc, 0xe6, 0x98, 0x4c, 0x3e,
  0x45, 0x4f, 0x9a, 0x3c, 0x92, 0xf3, 0x5f, 0x3d, 0x3e, 0x4e, 0xd2, 0xbd,
  0x8c, 0x0d, 0x09, 0xbd, 0xfa, 0x72, 0x5c, 0x3e, 0x45, 0x71, 0xb1, 0x3e,
  0x94, 0x56, 0x0a, 0x3e, 0x2e, 0xc8, 0x19, 0xbd, 0x81, 0x27, 0x08, 0xbd,
  0x58, 0xb6, 0x54, 0x3d, 0xdf, 0xf6, 0xfd, 0xbb, 0xb9, 0x92, 0x16, 0x3f,
  0xfd, 0xe9, 0xa9, 0x3e, 0x17, 0x80, 0x3a, 0x3e, 0xde, 0xb9, 0xbe, 0x3e,
  0x2c, 0x25, 0x30, 0x3e, 0x4e, 0xfe, 0xff, 0xff, 0x10, 0x00, 0x00, 0x00,
  0x05, 0x00, 0x00, 0x00, 0x14, 0x00, 0x00, 0x00, 0x2c, 0x00, 0x00, 0x00,
  0x02, 0x00, 0x00, 0x00, 0x10, 0x00, 0x00, 0x00, 0x70, 0x00, 0x00, 0x00,
  0x17, 0x00, 0x00, 0x00, 0x73, 0x65, 0x71, 0x75, 0x65, 0x6e, 0x74, 0x69,
  0x61, 0x6c, 0x2f, 0x64, 0x65, 0x6e, 0x73, 0x65, 0x2f, 0x4d, 0x61, 0x74,
  0x4d, 0x75, 0x6c, 0x00, 0x3c, 0xfe, 0xff, 0xff, 0x32, 0xff, 0xff, 0xff,
  0x04, 0x00, 0x00, 0x00, 0x08, 0x00, 0x00, 0x00, 0xff, 0xff, 0xff, 0xff,
  0x70, 0x00, 0x00, 0x00, 0x00, 0x00, 0x0e, 0x00, 0x18, 0x00, 0x08, 0x00,
  0x07, 0x00, 0x0c, 0x00, 0x10, 0x00, 0x14, 0x00, 0x0e, 0x00, 0x00, 0x00,
  0x00, 0x00, 0x00, 0x02, 0x10, 0x00, 0x00, 0x00, 0x04, 0x00, 0x00, 0x00,
  0x10, 0x00, 0x00, 0x00, 0x2c, 0x00, 0x00, 0x00, 0x01, 0x00, 0x00, 0x00,
  0x02, 0x00, 0x00, 0x00, 0x18, 0x00, 0x00, 0x00, 0x73, 0x65, 0x71, 0x75,
  0x65, 0x6e, 0x74, 0x69, 0x61, 0x6c, 0x2f, 0x66, 0x6c, 0x61, 0x74, 0x74,
  0x65, 0x6e, 0x2f, 0x43, 0x6f, 0x6e, 0x73, 0x74, 0x00, 0x00, 0x00, 0x00,
  0xa4, 0xfe, 0xff, 0xff, 0x9a, 0xff, 0xff, 0xff, 0x04, 0x00, 0x00, 0x00,
  0x08, 0x00, 0x00, 0x00, 0x01, 0xa9, 0x58, 0xbf, 0xf5, 0xa8, 0x58, 0x3f,
  0x0a, 0xff, 0xff, 0xff, 0x10, 0x00, 0x00, 0x00, 0x03, 0x00, 0x00, 0x00,
  0x10, 0x00, 0x00, 0x00, 0x3c, 0x00, 0x00, 0x00, 0x01, 0x00, 0x00, 0x00,
  0x02, 0x00, 0x00, 0x00, 0x29, 0x00, 0x00, 0x00, 0x73, 0x65, 0x71, 0x75,
  0x65, 0x6e, 0x74, 0x69, 0x61, 0x6c, 0x2f, 0x64, 0x65, 0x6e, 0x73, 0x65,
  0x5f, 0x31, 0x2f, 0x42, 0x69, 0x61, 0x73, 0x41, 0x64, 0x64, 0x2f, 0x52,
  0x65, 0x61, 0x64, 0x56, 0x61, 0x72, 0x69, 0x61, 0x62, 0x6c, 0x65, 0x4f,
  0x70, 0x00, 0x00, 0x00, 0x60, 0xff, 0xff, 0xff, 0x00, 0x00, 0x06, 0x00,
  0x08, 0x00, 0x04, 0x00, 0x06, 0x00, 0x00, 0x00, 0x04, 0x00, 0x00, 0x00,
  0x40, 0x00, 0x00, 0x00, 0x58, 0xd3, 0x0a, 0xbf, 0x37, 0xf8, 0x82, 0x3f,
  0x2e, 0x00, 0x0e, 0x3e, 0x0b, 0xd9, 0x3b, 0xbf, 0x7a, 0xe1, 0x6e, 0xbe,
  0x1d, 0xa1, 0x9a, 0xbe, 0xe2, 0x4c, 0x03, 0x3f, 0x3f, 0x34, 0xfc, 0x3d,
  0xa1, 0x96, 0xee, 0x3e, 0x1e, 0x8f, 0x5f, 0x3f, 0x73, 0x5e, 0xbc, 0x3e,
  0x14, 0x91, 0x13, 0xbf, 0x28, 0xb7, 0x0e, 0x40, 0xf7, 0x8d, 0x89, 0x3e,
  0x8f, 0x38, 0x2f, 0xbe, 0xdf, 0x46, 0x67, 0x3f, 0xae, 0xff, 0xff, 0xff,
  0x10, 0x00, 0x00, 0x00, 0x02, 0x00, 0x00, 0x00, 0x10, 0x00, 0x00, 0x00,
  0x3c, 0x00, 0x00, 0x00, 0x01, 0x00, 0x00, 0x00, 0x10, 0x00, 0x00, 0x00,
  0x27, 0x00, 0x00, 0x00, 0x73, 0x65, 0x71, 0x75, 0x65, 0x6e, 0x74, 0x69,
  0x61, 0x6c, 0x2f, 0x64, 0x65, 0x6e, 0x73, 0x65, 0x2f, 0x42, 0x69, 0x61,
  0x73, 0x41, 0x64, 0x64, 0x2f, 0x52, 0x65, 0x61, 0x64, 0x56, 0x61, 0x72,
  0x69, 0x61, 0x62, 0x6c, 0x65, 0x4f, 0x70, 0x00, 0x04, 0x00, 0x06, 0x00,
  0x04, 0x00, 0x00, 0x00, 0x00, 0x00, 0x0e, 0x00, 0x14, 0x00, 0x04, 0x00,
  0x00, 0x00, 0x08, 0x00, 0x0c, 0x00, 0x10, 0x00, 0x0e, 0x00, 0x00, 0x00,
  0x10, 0x00, 0x00, 0x00, 0x01, 0x00, 0x00, 0x00, 0x1c, 0x00, 0x00, 0x00,
  0x2c, 0x00, 0x00, 0x00, 0x04, 0x00, 0x00, 0x00, 0x01, 0x00, 0x00, 0x00,
  0x40, 0x00, 0x00, 0x00, 0x03, 0x00, 0x00, 0x00, 0x01, 0x00, 0x00, 0x00,
  0x0c, 0x00, 0x00, 0x00, 0x63, 0x6f, 0x6e, 0x76, 0x32, 0x64, 0x5f, 0x69,
  0x6e, 0x70, 0x75, 0x74, 0x00, 0x00, 0x00, 0x00, 0xfc, 0xff, 0xff, 0xff,
  0x04, 0x00, 0x04, 0x00, 0x04, 0x00, 0x00, 0x00
  // Paste the data of the char array in `src/model.cc` here

};


unsigned int model_tflite_len =12248;// Fill the int in `src/model.cc` here